<unk>	0
<s>	0
</s>	0
<pad>	0
<0x00>	0
<0x01>	0
<0x02>	0
<0x03>	0
<0x04>	0
<0x05>	0
<0x06>	0
<0x07>	0
<0x08>	0
<0x09>	0
<0x0A>	0
<0x0B>	0
<0x0C>	0
<0x0D>	0
<0x0E>	0
<0x0F>	0
<0x10>	0
<0x11>	0
<0x12>	0
<0x13>	0
<0x14>	0
<0x15>	0
<0x16>	0
<0x17>	0
<0x18>	0
<0x19>	0
<0x1A>	0
<0x1B>	0
<0x1C>	0
<0x1D>	0
<0x1E>	0
<0x1F>	0
<0x20>	0
<0x21>	0
<0x22>	0
<0x23>	0
<0x24>	0
<0x25>	0
<0x26>	0
<0x27>	0
<0x28>	0
<0x29>	0
<0x2A>	0
<0x2B>	0
<0x2C>	0
<0x2D>	0
<0x2E>	0
<0x2F>	0
<0x30>	0
<0x31>	0
<0x32>	0
<0x33>	0
<0x34>	0
<0x35>	0
<0x36>	0
<0x37>	0
<0x38>	0
<0x39>	0
<0x3A>	0
<0x3B>	0
<0x3C>	0
<0x3D>	0
<0x3E>	0
<0x3F>	0
<0x40>	0
<0x41>	0
<0x42>	0
<0x43>	0
<0x44>	0
<0x45>	0
<0x46>	0
<0x47>	0
<0x48>	0
<0x49>	0
<0x4A>	0
<0x4B>	0
<0x4C>	0
<0x4D>	0
<0x4E>	0
<0x4F>	0
<0x50>	0
<0x51>	0
<0x52>	0
<0x53>	0
<0x54>	0
<0x55>	0
<0x56>	0
<0x57>	0
<0x58>	0
<0x59>	0
<0x5A>	0
<0x5B>	0
<0x5C>	0
<0x5D>	0
<0x5E>	0
<0x5F>	0
<0x60>	0
<0x61>	0
<0x62>	0
<0x63>	0
<0x64>	0
<0x65>	0
<0x66>	0
<0x67>	0
<0x68>	0
<0x69>	0
<0x6A>	0
<0x6B>	0
<0x6C>	0
<0x6D>	0
<0x6E>	0
<0x6F>	0
<0x70>	0
<0x71>	0
<0x72>	0
<0x73>	0
<0x74>	0
<0x75>	0
<0x76>	0
<0x77>	0
<0x78>	0
<0x79>	0
<0x7A>	0
<0x7B>	0
<0x7C>	0
<0x7D>	0
<0x7E>	0
<0x7F>	0
<0x80>	0
<0x81>	0
<0x82>	0
<0x83>	0
<0x84>	0
<0x85>	0
<0x86>	0
<0x87>	0
<0x88>	0
<0x89>	0
<0x8A>	0
<0x8B>	0
<0x8C>	0
<0x8D>	0
<0x8E>	0
<0x8F>	0
<0x90>	0
<0x91>	0
<0x92>	0
<0x93>	0
<0x94>	0
<0x95>	0
<0x96>	0
<0x97>	0
<0x98>	0
<0x99>	0
<0x9A>	0
<0x9B>	0
<0x9C>	0
<0x9D>	0
<0x9E>	0
<0x9F>	0
<0xA0>	0
<0xA1>	0
<0xA2>	0
<0xA3>	0
<0xA4>	0
<0xA5>	0
<0xA6>	0
<0xA7>	0
<0xA8>	0
<0xA9>	0
<0xAA>	0
<0xAB>	0
<0xAC>	0
<0xAD>	0
<0xAE>	0
<0xAF>	0
<0xB0>	0
<0xB1>	0
<0xB2>	0
<0xB3>	0
<0xB4>	0
<0xB5>	0
<0xB6>	0
<0xB7>	0
<0xB8>	0
<0xB9>	0
<0xBA>	0
<0xBB>	0
<0xBC>	0
<0xBD>	0
<0xBE>	0
<0xBF>	0
<0xC0>	0
<0xC1>	0
<0xC2>	0
<0xC3>	0
<0xC4>	0
<0xC5>	0
<0xC6>	0
<0xC7>	0
<0xC8>	0
<0xC9>	0
<0xCA>	0
<0xCB>	0
<0xCC>	0
<0xCD>	0
<0xCE>	0
<0xCF>	0
<0xD0>	0
<0xD1>	0
<0xD2>	0
<0xD3>	0
<0xD4>	0
<0xD5>	0
<0xD6>	0
<0xD7>	0
<0xD8>	0
<0xD9>	0
<0xDA>	0
<0xDB>	0
<0xDC>	0
<0xDD>	0
<0xDE>	0
<0xDF>	0
<0xE0>	0
<0xE1>	0
<0xE2>	0
<0xE3>	0
<0xE4>	0
<0xE5>	0
<0xE6>	0
<0xE7>	0
<0xE8>	0
<0xE9>	0
<0xEA>	0
<0xEB>	0
<0xEC>	0
<0xED>	0
<0xEE>	0
<0xEF>	0
<0xF0>	0
<0xF1>	0
<0xF2>	0
<0xF3>	0
<0xF4>	0
<0xF5>	0
<0xF6>	0
<0xF7>	0
<0xF8>	0
<0xF9>	0
<0xFA>	0
<0xFB>	0
<0xFC>	0
<0xFD>	0
<0xFE>	0
<0xFF>	0
▁t	-0
he	-1
▁a	-2
in	-3
▁the	-4
er	-5
on	-6
▁,	-7
re	-8
▁s	-9
ed	-10
▁o	-11
▁w	-12
nd	-13
at	-14
▁.	-15
or	-16
it	-17
▁c	-18
en	-19
▁f	-20
is	-21
es	-22
ar	-23
▁of	-24
▁b	-25
an	-26
▁in	-27
al	-28
ing	-29
▁p	-30
▁and	-31
as	-32
▁to	-33
ro	-34
ic	-35
▁m	-36
▁d	-37
▁h	-38
ion	-39
le	-40
ou	-41
▁T	-42
▁re	-43
▁"	-44
ent	-45
il	-46
▁th	-47
▁S	-48
▁1	-49
▁A	-50
st	-51
el	-52
om	-53
▁l	-54
▁C	-55
am	-56
▁e	-57
▁n	-58
▁=	-59
▁@	-60
ad	-61
ac	-62
▁was	-63
ur	-64
▁M	-65
ec	-66
▁on	-67
ly	-68
▁g	-69
▁'	-70
et	-71
ol	-72
▁B	-73
id	-74
iv	-75
im	-76
▁for	-77
ir	-78
-@	-79
▁@-@	-80
ig	-81
▁I	-82
ot	-83
▁The	-84
ter	-85
▁as	-86
us	-87
ow	-88
▁H	-89
▁st	-90
ut	-91
ith	-92
ay	-93
▁2	-94
ation	-95
ver	-96
▁be	-97
her	-98
▁P	-99
▁that	-100
▁with	-101
▁R	-102
ce	-103
th	-104
▁is	-105
un	-106
em	-107
▁wh	-108
▁D	-109
ul	-110
▁by	-111
▁al	-112
ch	-113
▁)	-114
▁(	-115
▁F	-116
▁con	-117
ra	-118
▁W	-119
os	-120
▁at	-121
▁G	-122
ers	-123
ct	-124
▁it	-125
▁L	-126
▁N	-127
▁19	-128
rom	-129
and	-130
▁an	-131
um	-132
est	-133
ag	-134
▁he	-135
▁J	-136
00	-137
ist	-138
ain	-139
od	-140
av	-141
ri	-142
▁E	-143
▁from	-144
▁com	-145
▁his	-146
▁O	-147
op	-148
▁pro	-149
res	-150
ies	-151
if	-152
▁v	-153
ort	-154
ere	-155
ill	-156
ld	-157
▁de	-158
pp	-159
▁su	-160
ore	-161
▁r	-162
▁se	-163
▁were	-164
ew	-165
ong	-166
igh	-167
ard	-168
ate	-169
all	-170
art	-171
ak	-172
ich	-173
▁ch	-174
▁or	-175
ab	-176
ant	-177
ud	-178
oc	-179
ber	-180
▁ex	-181
gh	-182
ity	-183
ated	-184
pt	-185
ess	-186
ear	-187
▁pl	-188
ame	-189
qu	-190
▁K	-191
ive	-192
rou	-193
▁are	-194
▁sh	-195
▁In	-196
▁k	-197
ack	-198
ect	-199
▁had	-200
se	-201
▁U	-202
▁which	-203
red	-204
ov	-205
ast	-206
▁sp	-207
ian	-208
▁y	-209
ment	-210
▁le	-211
▁St	-212
▁not	-213
ge	-214
ord	-215
rit	-216
ip	-217
ine	-218
ell	-219
ally	-220
our	-221
ost	-222
ight	-223
ther	-224
ap	-225
▁u	-226
ish	-227
oun	-228
ia	-229
▁Ch	-230
▁3	-231
ave	-232
ary	-233
ust	-234
og	-235
▁200	-236
▁un	-237
ous	-238
irst	-239
cc	-240
▁inc	-241
▁;	-242
▁comp	-243
▁V	-244
ru	-245
ions	-246
▁their	-247
▁but	-248
ide	-249
ure	-250
so	-251
▁cont	-252
▁int	-253
fter	-254
ical	-255
ial	-256
▁ar	-257
▁first	-258
ould	-259
▁its	-260
hed	-261
▁–	-262
▁whe	-263
wo	-264
out	-265
ub	-266
▁20	-267
ff	-268
▁:	-269
ue	-270
▁her	-271
own	-272
ok	-273
▁also	-274
▁cl	-275
per	-276
ign	-277
ater	-278
ran	-279
orm	-280
ie	-281
ome	-282
ass	-283
ork	-284
ire	-285
end	-286
▁res	-287
▁ab	-288
▁ad	-289
▁us	-290
ry	-291
The	-292
▁rec	-293
▁have	-294
age	-295
▁ro	-296
mer	-297
▁one	-298
ond	-299
▁He	-300
▁4	-301
low	-302
▁has	-303
du	-304
▁per	-305
▁5	-306
▁been	-307
ime	-308
▁two	-309
ence	-310
land	-311
▁18	-312
.@	-313
▁@.@	-314
ult	-315
ree	-316
ough	-317
ile	-318
▁who	-319
▁sc	-320
uring	-321
pl	-322
▁Th	-323
ory	-324
ition	-325
ric	-326
ations	-327
▁dis	-328
▁this	-329
▁bec	-330
▁app	-331
iz	-332
are	-333
ach	-334
lud	-335
ade	-336
▁play	-337
▁j	-338
▁man	-339
act	-340
ely	-341
▁part	-342
▁des	-343
▁ag	-344
▁It	-345
▁they	-346
▁year	-347
ount	-348
▁Al	-349
▁201	-350
▁over	-351
▁other	-352
ound	-353
▁after	-354
ib	-355
over	-356
▁ser	-357
▁en	-358
▁off	-359
▁im	-360
te	-361
ction	-362
ke	-363
ite	-364
,@	-365
▁@,@	-366
urn	-367
▁Y	-368
▁includ	-369
ress	-370
ance	-371
ang	-372
▁att	-373
ice	-374
ace	-375
ark	-376
▁out	-377
wn	-378
ph	-379
ember	-380
▁pre	-381
▁up	-382
ens	-383
man	-384
▁ev	-385
▁time	-386
nder	-387
rough	-388
ced	-389
▁fin	-390
▁into	-391
one	-392
port	-393
round	-394
we	-395
ren	-396
les	-397
int	-398
vel	-399
▁comm	-400
▁she	-401
ason	-402
amp	-403
▁te	-404
▁would	-405
ward	-406
▁more	-407
ied	-408
ose	-409
rib	-410
▁all	-411
ings	-412
tern	-413
▁6	-414
ces	-415
able	-416
▁we	-417
ited	-418
ever	-419
ents	-420
▁Un	-421
▁him	-422
ased	-423
ors	-424
oy	-425
ood	-426
▁cent	-427
ix	-428
ase	-429
ild	-430
▁work	-431
ates	-432
▁7	-433
ious	-434
ath	-435
▁po	-436
rop	-437
old	-438
als	-439
ey	-440
iss	-441
ict	-442
▁fe	-443
▁them	-444
▁An	-445
gan	-446
▁sec	-447
▁bet	-448
▁when	-449
▁song	-450
▁rem	-451
form	-452
ail	-453
ep	-454
fer	-455
▁ear	-456
ubl	-457
aw	-458
▁kn	-459
ake	-460
aus	-461
▁most	-462
▁cons	-463
▁during	-464
orth	-465
▁new	-466
ered	-467
ilm	-468
ved	-469
att	-470
▁only	-471
▁dec	-472
ss	-473
▁9	-474
ick	-475
▁8	-476
▁game	-477
ons	-478
ug	-479
▁tr	-480
ft	-481
oth	-482
ook	-483
reat	-484
way	-485
▁can	-486
ollow	-487
outh	-488
ween	-489
ters	-490
▁199	-491
▁rel	-492
ind	-493
▁Mar	-494
▁On	-495
▁about	-496
▁En	-497
▁season	-498
▁again	-499
ral	-500
▁three	-501
ational	-502
▁under	-503
ular	-504
▁me	-505
▁than	-506
hip	-507
ob	-508
▁between	-509
▁fl	-510
▁ne	-511
hn	-512
ve	-513
▁char	-514
▁col	-515
▁record	-516
▁Com	-517
iew	-518
ron	-519
▁Ar	-520
fore	-521
▁through	-522
ision	-523
orn	-524
▁00	-525
ock	-526
▁ver	-527
▁num	-528
▁later	-529
▁end	-530
olog	-531
ames	-532
▁pos	-533
▁writ	-534
▁produ	-535
▁while	-536
▁act	-537
▁rele	-538
▁film	-539
ished	-540
▁pr	-541
▁reg	-542
ans	-543
▁form	-544
▁ass	-545
ts	-546
ury	-547
ted	-548
▁made	-549
▁sub	-550
▁pe	-551
▁so	-552
orld	-553
▁Se	-554
▁ret	-555
▁spec	-556
▁acc	-557
▁qu	-558
▁where	-559
▁New	-560
ener	-561
▁mov	-562
In	-563
meric	-564
ating	-565
▁inter	-566
▁ra	-567
▁Americ	-568
▁some	-569
▁co	-570
▁lar	-571
▁bu	-572
▁def	-573
bum	-574
▁Le	-575
▁ac	-576
▁mus	-577
▁follow	-578
ins	-579
ived	-580
ific	-581
ual	-582
▁am	-583
▁such	-584
▁second	-585
ike	-586
▁four	-587
▁ind	-588
ann	-589
hen	-590
▁used	-591
ll	-592
ics	-593
lect	-594
hes	-595
▁day	-596
iel	-597
ily	-598
▁publ	-599
▁0	-600
▁call	-601
▁album	-602
▁000	-603
rans	-604
▁do	-605
any	-606
▁before	-607
aid	-608
▁Jo	-609
▁Re	-610
▁This	-611
▁being	-612
▁sy	-613
▁10	-614
uc	-615
▁ep	-616
▁supp	-617
▁there	-618
▁years	-619
▁Eng	-620
owever	-621
▁ent	-622
ars	-623
ife	-624
▁high	-625
▁found	-626
ird	-627
▁Sh	-628
▁set	-629
▁no	-630
ines	-631
iver	-632
▁At	-633
io	-634
other	-635
ject	-636
▁sur	-637
ten	-638
aj	-639
▁tra	-640
▁12	-641
ised	-642
ities	-643
velop	-644
ale	-645
▁bl	-646
▁series	-647
▁loc	-648
▁number	-649
▁pres	-650
ane	-651
ause	-652
ode	-653
ek	-654
ton	-655
ier	-656
ise	-657
▁sever	-658
ince	-659
▁both	-660
ank	-661
row	-662
▁Sc	-663
irect	-664
▁then	-665
iet	-666
▁16	-667
▁epis	-668
▁including	-669
its	-670
igin	-671
▁Brit	-672
▁/	-673
pr	-674
▁against	-675
▁well	-676
▁became	-677
▁exp	-678
▁As	-679
▁known	-680
▁trans	-681
▁charac	-682
▁—	-683
ram	-684
▁add	-685
▁back	-686
▁go	-687
▁pop	-688
son	-689
urch	-690
▁desc	-691
ield	-692
▁sing	-693
▁perform	-694
ained	-695
ident	-696
▁rece	-697
▁em	-698
ert	-699
ures	-700
▁dep	-701
▁inv	-702
air	-703
ern	-704
ather	-705
▁198	-706
ful	-707
▁mon	-708
▁many	-709
▁main	-710
▁stud	-711
▁long	-712
inn	-713
though	-714
up	-715
ool	-716
led	-717
▁United	-718
ement	-719
ower	-720
▁15	-721
▁Z	-722
▁op	-723
ined	-724
▁11	-725
▁met	-726
ober	-727
ley	-728
▁17	-729
▁century	-730
▁team	-731
▁est	-732
yl	-733
▁min	-734
uch	-735
ute	-736
▁develop	-737
iam	-738
▁show	-739
elf	-740
▁John	-741
▁rep	-742
▁conc	-743
ative	-744
▁cre	-745
overn	-746
ared	-747
▁194	-748
▁origin	-749
▁sm	-750
ivers	-751
az	-752
▁She	-753
▁lead	-754
▁several	-755
ah	-756
▁rev	-757
▁ob	-758
▁mill	-759
erm	-760
ually	-761
oot	-762
▁began	-763
ired	-764
▁dif	-765
▁contin	-766
▁sign	-767
ik	-768
ments	-769
ized	-770
▁direct	-771
au	-772
▁196	-773
ross	-774
▁Ind	-775
▁ext	-776
emb	-777
der	-778
▁197	-779
▁pol	-780
▁may	-781
apt	-782
els	-783
▁comple	-784
▁art	-785
une	-786
til	-787
▁crit	-788
▁hist	-789
▁early	-790
▁could	-791
▁did	-792
▁bel	-793
▁called	-794
ued	-795
▁near	-796
▁episode	-797
yp	-798
▁describ	-799
imes	-800
roup	-801
▁bro	-802
ople	-803
▁Br	-804
▁run	-805
▁down	-806
▁Is	-807
aking	-808
▁disc	-809
▁along	-810
ccess	-811
▁feat	-812
▁inst	-813
▁said	-814
▁dist	-815
▁imp	-816
▁inf	-817
ink	-818
▁ins	-819
▁Con	-820
ty	-821
▁American	-822
▁mil	-823
▁these	-824
enn	-825
ium	-826
gest	-827
ven	-828
▁May	-829
▁Aust	-830
▁resp	-831
ull	-832
ruct	-833
ured	-834
▁though	-835
ove	-836
▁Bl	-837
▁ship	-838
▁oper	-839
▁Ger	-840
▁prev	-841
▁until	-842
itt	-843
amed	-844
cept	-845
▁car	-846
▁British	-847
▁start	-848
▁city	-849
▁gener	-850
▁Wh	-851
▁same	-852
ains	-853
ists	-854
ided	-855
ially	-856
▁released	-857
▁land	-858
ism	-859
▁War	-860
▁any	-861
▁own	-862
▁war	-863
▁return	-864
▁prov	-865
▁air	-866
xt	-867
erson	-868
oman	-869
▁music	-870
▁km	-871
ajor	-872
▁design	-873
ible	-874
▁Car	-875
osed	-876
▁sim	-877
▁const	-878
▁appear	-879
▁million	-880
▁They	-881
▁because	-882
ash	-883
▁fam	-884
▁mat	-885
▁use	-886
▁area	-887
▁13	-888
▁Aug	-889
rist	-890
▁August	-891
▁ph	-892
▁occ	-893
▁open	-894
▁like	-895
ony	-896
▁success	-897
ole	-898
ouse	-899
erv	-900
▁count	-901
oss	-902
▁pass	-903
▁Pl	-904
▁eff	-905
▁people	-906
my	-907
chool	-908
und	-909
stem	-910
▁offic	-911
ets	-912
uth	-913
▁six	-914
ange	-915
ues	-916
▁support	-917
▁195	-918
▁Cl	-919
▁Sp	-920
▁around	-921
▁small	-922
▁After	-923
▁Sept	-924
▁dam	-925
▁%	-926
▁adv	-927
▁mod	-928
▁ele	-929
▁north	-930
ales	-931
▁head	-932
ient	-933
▁Col	-934
▁group	-935
▁govern	-936
▁Ju	-937
raph	-938
▁character	-939
▁br	-940
▁ed	-941
▁each	-942
▁point	-943
▁gr	-944
▁September	-945
wards	-946
▁consid	-947
ution	-948
▁following	-949
▁life	-950
▁German	-951
▁gu	-952
anc	-953
▁Austral	-954
▁ann	-955
▁World	-956
▁contro	-957
ural	-958
▁var	-959
▁five	-960
▁However	-961
▁attack	-962
ged	-963
▁193	-964
ording	-965
▁result	-966
▁will	-967
ont	-968
ina	-969
▁Ad	-970
▁Comm	-971
ck	-972
ys	-973
▁ever	-974
eb	-975
▁191	-976
▁US	-977
▁large	-978
▁II	-979
lish	-980
▁Q	-981
ling	-982
▁book	-983
▁report	-984
ague	-985
ean	-986
▁North	-987
▁Her	-988
▁All	-989
ox	-990
ble	-991
hel	-992
▁Eu	-993
aced	-994
▁June	-995
▁tit	-996
ended	-997
dom	-998
ilt	-999
ives	-1000
ats	-1001
▁Fran	-1002
▁prom	-1003
med	-1004
▁week	-1005
▁Pro	-1006
▁14	-1007
ately	-1008
aving	-1009
ored	-1010
▁str	-1011
▁since	-1012
▁States	-1013
▁Jan	-1014
▁final	-1015
▁major	-1016
ax	-1017
▁south	-1018
▁received	-1019
ivision	-1020
▁name	-1021
▁partic	-1022
ery	-1023
▁hel	-1024
ology	-1025
..	-1026
ption	-1027
▁Oct	-1028
▁care	-1029
▁public	-1030
▁rest	-1031
▁system	-1032
ected	-1033
▁South	-1034
ility	-1035
▁Christ	-1036
ting	-1037
▁state	-1038
▁batt	-1039
▁what	-1040
▁Gu	-1041
ages	-1042
uary	-1043
ae	-1044
rand	-1045
▁last	-1046
▁described	-1047
▁October	-1048
▁line	-1049
▁class	-1050
▁$	-1051
rote	-1052
▁det	-1053
▁King	-1054
▁De	-1055
raft	-1056
iving	-1057
▁played	-1058
▁...	-1059
▁Nov	-1060
▁prot	-1061
▁incre	-1062
aur	-1063
ropical	-1064
▁mar	-1065
▁now	-1066
ified	-1067
▁took	-1068
aim	-1069
ional	-1070
get	-1071
ants	-1072
ody	-1073
▁]	-1074
ively	-1075
▁build	-1076
▁world	-1077
▁late	-1078
yc	-1079
▁25	-1080
by	-1081
▁July	-1082
▁Dec	-1083
▁Par	-1084
▁York	-1085
▁wrote	-1086
empt	-1087
sion	-1088
ball	-1089
esp	-1090
▁[	-1091
ret	-1092
▁won	-1093
app	-1094
ideo	-1095
▁For	-1096
▁species	-1097
ians	-1098
omet	-1099
▁child	-1100
iod	-1101
▁much	-1102
▁port	-1103
▁conf	-1104
▁serv	-1105
▁Can	-1106
ection	-1107
▁ref	-1108
▁camp	-1109
arn	-1110
ech	-1111
▁due	-1112
▁short	-1113
▁allow	-1114
▁single	-1115
pril	-1116
▁Europ	-1117
▁differ	-1118
▁just	-1119
▁April	-1120
▁death	-1121
ically	-1122
ex	-1123
ract	-1124
▁star	-1125
ris	-1126
▁sl	-1127
▁gun	-1128
ission	-1129
omin	-1130
▁Be	-1131
ital	-1132
▁another	-1133
▁included	-1134
▁poss	-1135
ai	-1136
▁old	-1137
ham	-1138
▁tri	-1139
▁storm	-1140
▁vis	-1141
▁January	-1142
▁even	-1143
▁left	-1144
▁list	-1145
▁30	-1146
▁par	-1147
▁within	-1148
ple	-1149
▁prog	-1150
▁appro	-1151
inc	-1152
▁Mus	-1153
ger	-1154
ops	-1155
itions	-1156
▁named	-1157
▁based	-1158
▁estab	-1159
▁if	-1160
▁although	-1161
▁attempt	-1162
▁top	-1163
▁Mc	-1164
▁Ge	-1165
ilar	-1166
▁very	-1167
▁track	-1168
▁England	-1169
▁belie	-1170
ards	-1171
▁bre	-1172
▁third	-1173
▁hum	-1174
ched	-1175
▁water	-1176
▁March	-1177
▁games	-1178
▁organ	-1179
ene	-1180
orp	-1181
▁beg	-1182
ently	-1183
▁power	-1184
▁event	-1185
▁family	-1186
▁previous	-1187
▁school	-1188
ms	-1189
urric	-1190
▁best	-1191
ulation	-1192
▁November	-1193
ances	-1194
▁period	-1195
▁review	-1196
▁way	-1197
▁men	-1198
aster	-1199
▁expl	-1200
▁home	-1201
que	-1202
▁fur	-1203
▁government	-1204
▁typ	-1205
▁192	-1206
ience	-1207
▁turn	-1208
▁December	-1209
let	-1210
▁cap	-1211
ature	-1212
▁those	-1213
▁hand	-1214
avy	-1215
▁And	-1216
▁place	-1217
ached	-1218
▁Ph	-1219
▁med	-1220
hest	-1221
oint	-1222
▁His	-1223
▁story	-1224
aged	-1225
▁built	-1226
amb	-1227
eder	-1228
▁great	-1229
ense	-1230
▁City	-1231
▁dr	-1232
ences	-1233
▁person	-1234
iven	-1235
▁command	-1236
▁100	-1237
▁kill	-1238
oci	-1239
▁month	-1240
elt	-1241
itary	-1242
▁opp	-1243
▁sent	-1244
▁make	-1245
▁original	-1246
iversity	-1247
oad	-1248
▁hal	-1249
▁requ	-1250
ves	-1251
ides	-1252
▁eng	-1253
gy	-1254
▁2009	-1255
ention	-1256
ness	-1257
▁2010	-1258
▁auth	-1259
▁video	-1260
▁National	-1261
bs	-1262
▁ant	-1263
▁2008	-1264
▁dem	-1265
▁sug	-1266
▁mark	-1267
ruction	-1268
akes	-1269
▁present	-1270
line	-1271
▁leg	-1272
▁Bro	-1273
▁club	-1274
▁Fl	-1275
rench	-1276
▁River	-1277
ival	-1278
▁view	-1279
riend	-1280
oard	-1281
▁repl	-1282
ograph	-1283
▁Man	-1284
▁capt	-1285
alk	-1286
side	-1287
▁still	-1288
▁local	-1289
▁moved	-1290
▁stand	-1291
eng	-1292
▁led	-1293
▁role	-1294
ott	-1295
▁Or	-1296
aining	-1297
ead	-1298
ler	-1299
aken	-1300
▁came	-1301
▁term	-1302
▁iss	-1303
▁dest	-1304
ung	-1305
ories	-1306
idge	-1307
mp	-1308
▁Pr	-1309
▁dra	-1310
▁often	-1311
▁common	-1312
urricane	-1313
▁history	-1314
▁addition	-1315
sh	-1316
▁caus	-1317
lev	-1318
atter	-1319
▁trad	-1320
rew	-1321
▁few	-1322
▁suggest	-1323
lu	-1324
read	-1325
▁2007	-1326
▁next	-1327
▁considered	-1328
▁effect	-1329
▁bas	-1330
▁deb	-1331
▁player	-1332
ior	-1333
▁mid	-1334
▁cour	-1335
astern	-1336
▁help	-1337
ister	-1338
▁Comp	-1339
▁exper	-1340
uted	-1341
▁career	-1342
▁side	-1343
▁similar	-1344
▁recorded	-1345
ays	-1346
▁Batt	-1347
▁right	-1348
▁French	-1349
▁win	-1350
▁init	-1351
▁import	-1352
▁real	-1353
▁English	-1354
self	-1355
▁claim	-1356
▁arch	-1357
▁cover	-1358
▁company	-1359
ining	-1360
▁town	-1361
▁published	-1362
▁sold	-1363
▁continued	-1364
▁Char	-1365
▁exc	-1366
▁refer	-1367
▁wind	-1368
▁different	-1369
▁you	-1370
▁take	-1371
▁without	-1372
ternational	-1373
yn	-1374
▁songs	-1375
▁tot	-1376
▁road	-1377
▁By	-1378
▁No	-1379
▁polit	-1380
▁former	-1381
▁We	-1382
▁tw	-1383
▁tem	-1384
▁held	-1385
▁21	-1386
ches	-1387
▁memb	-1388
▁among	-1389
▁Ab	-1390
▁level	-1391
par	-1392
▁el	-1393
▁Port	-1394
ning	-1395
▁There	-1396
▁field	-1397
▁mag	-1398
▁elect	-1399
On	-1400
iment	-1401
▁During	-1402
ner	-1403
▁av	-1404
uss	-1405
itar	-1406
▁del	-1407
▁prop	-1408
inning	-1409
▁written	-1410
iter	-1411
resent	-1412
▁every	-1413
▁X	-1414
rodu	-1415
▁Will	-1416
estern	-1417
▁half	-1418
▁commun	-1419
lear	-1420
yle	-1421
ampions	-1422
eg	-1423
▁release	-1424
ried	-1425
▁2011	-1426
▁Division	-1427
▁23	-1428
▁Rec	-1429
ots	-1430
▁State	-1431
▁become	-1432
▁further	-1433
▁2006	-1434
▁west	-1435
ensive	-1436
ccording	-1437
enc	-1438
▁church	-1439
▁strong	-1440
▁One	-1441
▁Per	-1442
▁days	-1443
▁fore	-1444
▁however	-1445
roy	-1446
▁Bar	-1447
▁find	-1448
▁When	-1449
▁Canad	-1450
ices	-1451
▁cur	-1452
▁east	-1453
▁version	-1454
augh	-1455
▁beh	-1456
▁spe	-1457
▁foot	-1458
▁Count	-1459
▁particular	-1460
ering	-1461
▁&	-1462
ize	-1463
▁my	-1464
ebru	-1465
▁low	-1466
▁prof	-1467
▁title	-1468
▁compet	-1469
▁position	-1470
▁Tr	-1471
▁Church	-1472
▁military	-1473
▁24	-1474
▁conv	-1475
▁author	-1476
▁Am	-1477
▁Ear	-1478
▁appe	-1479
▁26	-1480
reen	-1481
▁West	-1482
▁order	-1483
▁22	-1484
outher	-1485
▁Roman	-1486
ront	-1487
▁sol	-1488
ittle	-1489
▁Gener	-1490
outhern	-1491
▁control	-1492
aces	-1493
▁times	-1494
fric	-1495
▁Song	-1496
▁band	-1497
▁Febru	-1498
▁League	-1499
▁February	-1500
pped	-1501
▁fre	-1502
▁less	-1503
ylan	-1504
▁defe	-1505
▁gave	-1506
▁vict	-1507
▁project	-1508
osp	-1509
sp	-1510
▁!	-1511
▁chang	-1512
▁members	-1513
▁reported	-1514
arm	-1515
▁nort	-1516
rick	-1517
▁Ass	-1518
▁nov	-1519
▁produced	-1520
▁stat	-1521
▁total	-1522
levision	-1523
eter	-1524
hern	-1525
aying	-1526
▁Park	-1527
iety	-1528
▁arr	-1529
▁2012	-1530
▁Geor	-1531
▁cult	-1532
▁popular	-1533
esc	-1534
isc	-1535
oung	-1536
▁ter	-1537
ailed	-1538
▁fire	-1539
▁production	-1540
urs	-1541
apan	-1542
hem	-1543
▁obs	-1544
▁tropical	-1545
▁28	-1546
ression	-1547
▁post	-1548
ring	-1549
▁critic	-1550
▁forces	-1551
ush	-1552
ford	-1553
▁children	-1554
▁histor	-1555
▁pat	-1556
▁having	-1557
▁include	-1558
ald	-1559
echn	-1560
▁Japan	-1561
ours	-1562
▁surv	-1563
▁influ	-1564
▁invol	-1565
rat	-1566
alion	-1567
▁sk	-1568
rent	-1569
▁lost	-1570
▁aff	-1571
▁given	-1572
▁country	-1573
▁want	-1574
▁Dylan	-1575
ably	-1576
▁represent	-1577
▁Ed	-1578
work	-1579
be	-1580
▁signific	-1581
omen	-1582
ising	-1583
▁manag	-1584
ope	-1585
ploy	-1586
▁Pol	-1587
vers	-1588
▁equ	-1589
▁2013	-1590
▁press	-1591
▁Cent	-1592
▁comb	-1593
▁eight	-1594
ges	-1595
ades	-1596
reet	-1597
▁sit	-1598
▁seen	-1599
▁site	-1600
irc	-1601
▁program	-1602
ones	-1603
oon	-1604
▁Old	-1605
▁match	-1606
▁never	-1607
▁making	-1608
▁fem	-1609
ration	-1610
▁Afric	-1611
▁establ	-1612
▁stated	-1613
▁General	-1614
ev	-1615
ither	-1616
▁Miss	-1617
▁body	-1618
▁plan	-1619
▁ord	-1620
▁fact	-1621
▁read	-1622
▁should	-1623
▁El	-1624
▁cr	-1625
▁Su	-1626
sequ	-1627
▁returned	-1628
fic	-1629
▁Sim	-1630
aun	-1631
ological	-1632
▁ft	-1633
▁soc	-1634
▁50	-1635
▁er	-1636
ne	-1637
▁190	-1638
▁Dav	-1639
▁sound	-1640
rem	-1641
▁how	-1642
▁University	-1643
ape	-1644
▁Ha	-1645
▁gen	-1646
▁island	-1647
▁America	-1648
▁cou	-1649
▁earl	-1650
▁ships	-1651
▁announ	-1652
▁struct	-1653
▁established	-1654
ampionship	-1655
▁god	-1656
▁chart	-1657
▁ground	-1658
▁population	-1659
aff	-1660
▁jo	-1661
ream	-1662
▁cat	-1663
▁div	-1664
▁reached	-1665
ground	-1666
na	-1667
reland	-1668
▁light	-1669
▁noted	-1670
ki	-1671
aul	-1672
▁away	-1673
▁friend	-1674
▁27	-1675
▁Ev	-1676
ille	-1677
used	-1678
igade	-1679
ument	-1680
nt	-1681
ffic	-1682
ination	-1683
ese	-1684
oll	-1685
▁lim	-1686
▁across	-1687
▁thought	-1688
▁developed	-1689
▁throughout	-1690
iec	-1691
▁Lond	-1692
▁Jack	-1693
▁These	-1694
▁seven	-1695
aint	-1696
ords	-1697
▁cast	-1698
▁Black	-1699
▁somet	-1700
omb	-1701
▁gl	-1702
ster	-1703
▁proc	-1704
▁London	-1705
▁pra	-1706
▁rad	-1707
▁introdu	-1708
af	-1709
▁With	-1710
▁good	-1711
▁using	-1712
▁Ireland	-1713
▁himself	-1714
▁development	-1715
▁Mich	-1716
▁black	-1717
▁Reg	-1718
iness	-1719
▁According	-1720
▁hig	-1721
▁William	-1722
reek	-1723
▁felt	-1724
idence	-1725
▁human	-1726
▁significant	-1727
utes	-1728
▁ide	-1729
▁Australia	-1730
▁wat	-1731
▁performed	-1732
ump	-1733
▁bar	-1734
▁important	-1735
ivil	-1736
most	-1737
view	-1738
▁adm	-1739
itive	-1740
▁night	-1741
▁writing	-1742
▁Air	-1743
▁fun	-1744
▁destroy	-1745
▁Gl	-1746
▁miles	-1747
▁father	-1748
▁bo	-1749
▁Atl	-1750
antic	-1751
▁television	-1752
▁Roy	-1753
▁various	-1754
▁interest	-1755
ief	-1756
osaur	-1757
▁areas	-1758
▁Although	-1759
▁tour	-1760
▁white	-1761
imately	-1762
▁modern	-1763
▁Pal	-1764
▁Rich	-1765
▁full	-1766
ogn	-1767
▁enc	-1768
▁ten	-1769
field	-1770
▁died	-1771
▁look	-1772
▁activ	-1773
ael	-1774
aign	-1775
▁law	-1776
▁went	-1777
▁need	-1778
ison	-1779
▁tro	-1780
▁does	-1781
▁prim	-1782
▁events	-1783
▁successful	-1784
ico	-1785
▁Har	-1786
▁red	-1787
▁Mag	-1788
ization	-1789
▁discover	-1790
ef	-1791
▁Road	-1792
▁players	-1793
▁started	-1794
con	-1795
rab	-1796
▁mm	-1797
▁decl	-1798
reg	-1799
ript	-1800
▁Cal	-1801
▁see	-1802
▁ball	-1803
iting	-1804
▁feet	-1805
▁house	-1806
▁formed	-1807
ourn	-1808
▁wid	-1809
▁poem	-1810
ks	-1811
▁mix	-1812
▁range	-1813
▁techn	-1814
▁sett	-1815
▁performance	-1816
rest	-1817
▁put	-1818
▁vill	-1819
▁style	-1820
▁County	-1821
▁building	-1822
▁relations	-1823
abor	-1824
▁age	-1825
▁sum	-1826
▁too	-1827
▁force	-1828
▁caused	-1829
ana	-1830
ino	-1831
▁Ex	-1832
epend	-1833
▁Mount	-1834
▁Rober	-1835
ara	-1836
alth	-1837
▁Cro	-1838
ublic	-1839
▁sw	-1840
ened	-1841
▁James	-1842
▁novel	-1843
▁ke	-1844
▁pri	-1845
iers	-1846
isted	-1847
▁created	-1848
▁official	-1849
day	-1850
idd	-1851
fall	-1852
▁189	-1853
▁You	-1854
elling	-1855
asing	-1856
▁Feder	-1857
ym	-1858
less	-1859
▁pit	-1860
▁2004	-1861
▁relig	-1862
▁entire	-1863
eth	-1864
▁son	-1865
ality	-1866
▁able	-1867
▁coast	-1868
▁political	-1869
ries	-1870
▁2005	-1871
ressed	-1872
▁characters	-1873
eal	-1874
ator	-1875
inal	-1876
▁get	-1877
▁others	-1878
▁construction	-1879
omm	-1880
▁bird	-1881
▁cert	-1882
▁pred	-1883
▁promot	-1884
ases	-1885
▁Ang	-1886
▁battle	-1887
ways	-1888
▁High	-1889
▁national	-1890
acy	-1891
▁Sec	-1892
oming	-1893
▁occur	-1894
▁val	-1895
▁’	-1896
br	-1897
▁Sw	-1898
▁fig	-1899
ample	-1900
play	-1901
▁lik	-1902
ament	-1903
▁once	-1904
ficult	-1905
▁fac	-1906
▁remained	-1907
▁located	-1908
omp	-1909
▁mount	-1910
▁tradition	-1911
enth	-1912
ivid	-1913
▁rock	-1914
▁works	-1915
▁scored	-1916
▁difficult	-1917
craft	-1918
▁guns	-1919
▁redu	-1920
lected	-1921
▁Island	-1922
▁produc	-1923
▁campaign	-1924
▁31	-1925
atic	-1926
▁Som	-1927
▁tre	-1928
▁meet	-1929
▁cross	-1930
▁stars	-1931
▁announced	-1932
▁completed	-1933
▁Australian	-1934
▁Ol	-1935
▁Cup	-1936
▁rank	-1937
▁region	-1938
▁Kingdom	-1939
ett	-1940
▁Town	-1941
▁hold	-1942
por	-1943
orse	-1944
ounc	-1945
▁nuc	-1946
▁squ	-1947
▁Care	-1948
▁Hist	-1949
▁Grand	-1950
▁While	-1951
off	-1952
ray	-1953
arch	-1954
▁Ham	-1955
itted	-1956
▁goal	-1957
▁grow	-1958
▁colle	-1959
▁super	-1960
▁Company	-1961
oid	-1962
umb	-1963
ique	-1964
▁fav	-1965
▁let	-1966
▁conn	-1967
▁little	-1968
▁process	-1969
aly	-1970
enced	-1971
rought	-1972
▁fight	-1973
▁front	-1974
▁instead	-1975
▁Bra	-1976
ky	-1977
here	-1978
▁circ	-1979
▁added	-1980
leet	-1981
▁cond	-1982
▁29	-1983
duct	-1984
▁least	-1985
▁followed	-1986
▁know	-1987
▁peak	-1988
▁appeared	-1989
▁Mor	-1990
▁born	-1991
▁Europe	-1992
▁killed	-1993
angu	-1994
▁months	-1995
▁southern	-1996
▁originally	-1997
urb	-1998
oice	-1999
▁Army	-2000
▁wife	-2001
▁comment	-2002
▁stri	-2003
mar	-2004
ota	-2005
▁40	-2006
▁fif	-2007
▁Bill	-2008
▁loss	-2009
▁study	-2010
▁mother	-2011
ius	-2012
▁Ne	-2013
▁Act	-2014
▁associ	-2015
▁hurricane	-2016
ects	-2017
▁cell	-2018
▁women	-2019
ston	-2020
▁Mon	-2021
▁non	-2022
▁sex	-2023
antry	-2024
▁agre	-2025
▁mass	-2026
▁eastern	-2027
▁ident	-2028
▁relationship	-2029
ycl	-2030
▁Te	-2031
▁aud	-2032
▁award	-2033
▁broad	-2034
▁critics	-2035
▁To	-2036
▁185	-2037
▁2003	-2038
▁anim	-2039
▁eventually	-2040
▁profess	-2041
▁features	-2042
aper	-2043
▁voc	-2044
▁Music	-2045
▁young	-2046
olution	-2047
▁recogn	-2048
ata	-2049
ully	-2050
▁bus	-2051
▁2015	-2052
▁live	-2053
ements	-2054
▁aver	-2055
▁France	-2056
▁fourth	-2057
emy	-2058
gin	-2059
cher	-2060
▁estim	-2061
▁route	-2062
▁taken	-2063
▁served	-2064
liam	-2065
ores	-2066
ask	-2067
illa	-2068
▁Ser	-2069
istic	-2070
▁prote	-2071
ography	-2072
▁commer	-2073
▁appoint	-2074
chie	-2075
omes	-2076
▁ste	-2077
▁lack	-2078
▁damage	-2079
▁decided	-2080
unk	-2081
azine	-2082
igned	-2083
▁David	-2084
▁heavy	-2085
ama	-2086
▁cor	-2087
▁base	-2088
▁either	-2089
▁Battalion	-2090
▁arm	-2091
▁far	-2092
▁insp	-2093
iation	-2094
▁impro	-2095
▁separ	-2096
▁condom	-2097
▁proble	-2098
ought	-2099
▁behind	-2100
▁special	-2101
ica	-2102
ecut	-2103
▁Love	-2104
▁coll	-2105
gether	-2106
▁individ	-2107
▁believed	-2108
▁together	-2109
▁z	-2110
ida	-2111
ency	-2112
▁God	-2113
▁arg	-2114
▁quar	-2115
liament	-2116
ipp	-2117
▁Co	-2118
aves	-2119
▁clos	-2120
iction	-2121
ouncil	-2122
cial	-2123
rict	-2124
▁dev	-2125
▁Royal	-2126
▁mater	-2127
▁playing	-2128
ee	-2129
rap	-2130
▁dou	-2131
▁burn	-2132
aching	-2133
iol	-2134
iber	-2135
▁Mad	-2136
▁move	-2137
sc	-2138
▁bi	-2139
▁ir	-2140
▁Ber	-2141
▁Mex	-2142
▁vol	-2143
▁close	-2144
▁creat	-2145
▁langu	-2146
▁round	-2147
▁accept	-2148
▁example	-2149
▁almost	-2150
alt	-2151
ests	-2152
▁188	-2153
▁Red	-2154
▁service	-2155
▁Robert	-2156
▁leading	-2157
▁Im	-2158
odes	-2159
▁Med	-2160
▁Part	-2161
▁fall	-2162
▁sour	-2163
▁generally	-2164
▁ce	-2165
▁Hen	-2166
▁saw	-2167
▁Carey	-2168
▁opened	-2169
▁towards	-2170
▁elements	-2171
▁Min	-2172
▁miss	-2173
gg	-2174
val	-2175
uter	-2176
oring	-2177
▁weeks	-2178
▁Brigade	-2179
▁brought	-2180
▁general	-2181
▁European	-2182
ceed	-2183
▁Rep	-2184
▁mot	-2185
▁draw	-2186
▁finished	-2187
stit	-2188
▁laun	-2189
▁White	-2190
▁International	-2191
oph	-2192
▁Viet	-2193
▁host	-2194
▁wall	-2195
▁highway	-2196
▁regular	-2197
▁featured	-2198
irl	-2199
▁35	-2200
▁Game	-2201
▁central	-2202
▁aircraft	-2203
cast	-2204
ending	-2205
lement	-2206
▁indust	-2207
board	-2208
ordan	-2209
ounter	-2210
▁resear	-2211
▁reb	-2212
▁Pres	-2213
etwork	-2214
▁points	-2215
▁contract	-2216
eum	-2217
▁fund	-2218
▁inform	-2219
▁directed	-2220
▁mi	-2221
orts	-2222
▁meas	-2223
▁suff	-2224
▁action	-2225
▁director	-2226
▁provided	-2227
▁Championship	-2228
gr	-2229
▁Du	-2230
hing	-2231
rish	-2232
wood	-2233
▁cut	-2234
ators	-2235
icated	-2236
▁flood	-2237
▁respect	-2238
▁nar	-2239
▁mean	-2240
▁sequ	-2241
▁upon	-2242
▁Kh	-2243
ential	-2244
▁appearance	-2245
ned	-2246
▁Jew	-2247
▁Two	-2248
ellow	-2249
▁yard	-2250
▁earlier	-2251
▁ly	-2252
▁186	-2253
▁king	-2254
tt	-2255
ights	-2256
▁East	-2257
▁cost	-2258
▁Wales	-2259
▁female	-2260
▁rather	-2261
▁troops	-2262
▁subsequ	-2263
▁Atlantic	-2264
atin	-2265
medi	-2266
▁ill	-2267
▁reve	-2268
▁stru	-2269
ishing	-2270
▁current	-2271
▁-	-2272
▁Mo	-2273
▁river	-2274
▁travel	-2275
ollowing	-2276
▁largest	-2277
▁victory	-2278
▁Christian	-2279
oo	-2280
ander	-2281
▁2014	-2282
▁Rock	-2283
▁House	-2284
▁employ	-2285
▁manager	-2286
▁operations	-2287
▁particularly	-2288
sel	-2289
▁Em	-2290
▁ve	-2291
ouri	-2292
erous	-2293
▁Hero	-2294
▁prob	-2295
▁achie	-2296
ule	-2297
▁Op	-2298
rated	-2299
▁fort	-2300
▁wanted	-2301
▁opening	-2302
▁bur	-2303
▁cop	-2304
ength	-2305
▁northern	-2306
ids	-2307
▁Ke	-2308
ault	-2309
▁500	-2310
▁ren	-2311
▁Mary	-2312
▁exist	-2313
▁yards	-2314
osition	-2315
da	-2316
ita	-2317
eler	-2318
onst	-2319
▁foc	-2320
orida	-2321
▁reason	-2322
▁conduct	-2323
▁evidence	-2324
ih	-2325
uck	-2326
▁Sl	-2327
head	-2328
reng	-2329
▁pract	-2330
▁member	-2331
oms	-2332
vest	-2333
▁Bay	-2334
▁Mac	-2335
▁crew	-2336
anding	-2337
▁George	-2338
▁engine	-2339
▁saying	-2340
▁allowed	-2341
▁outside	-2342
▁possible	-2343
uel	-2344
ving	-2345
west	-2346
▁Phil	-2347
atural	-2348
▁Street	-2349
▁account	-2350
yd	-2351
irth	-2352
▁mer	-2353
▁neg	-2354
▁Play	-2355
▁past	-2356
▁stage	-2357
co	-2358
conom	-2359
▁whom	-2360
▁hours	-2361
▁respons	-2362
ago	-2363
ify	-2364
▁case	-2365
ington	-2366
artment	-2367
▁Missouri	-2368
▁material	-2369
ills	-2370
▁desp	-2371
▁regard	-2372
▁worked	-2373
ude	-2374
▁gre	-2375
▁nec	-2376
▁2001	-2377
▁free	-2378
▁mach	-2379
▁length	-2380
▁object	-2381
▁streng	-2382
▁territ	-2383
aps	-2384
▁gold	-2385
▁plann	-2386
▁working	-2387
ems	-2388
vert	-2389
▁che	-2390
▁Paul	-2391
▁nomin	-2392
lus	-2393
▁rul	-2394
After	-2395
aries	-2396
▁love	-2397
▁poor	-2398
▁quick	-2399
bor	-2400
▁Gal	-2401
▁Some	-2402
▁Other	-2403
▁designed	-2404
uk	-2405
ari	-2406
now	-2407
cent	-2408
▁San	-2409
▁Jordan	-2410
▁football	-2411
urt	-2412
▁Wil	-2413
▁hon	-2414
▁mult	-2415
▁learn	-2416
▁Indian	-2417
▁praised	-2418
▁construct	-2419
ps	-2420
▁But	-2421
▁esc	-2422
ession	-2423
▁avail	-2424
▁treat	-2425
▁forced	-2426
▁Federer	-2427
▁remains	-2428
▁station	-2429
ites	-2430
▁187	-2431
iding	-2432
▁Mark	-2433
▁viol	-2434
▁goals	-2435
gypt	-2436
uation	-2437
▁think	-2438
▁winds	-2439
▁McC	-2440
▁Squ	-2441
▁Wal	-2442
heast	-2443
▁diss	-2444
▁above	-2445
▁civil	-2446
▁invest	-2447
▁increased	-2448
▁£	-2449
▁Qu	-2450
hens	-2451
▁Val	-2452
▁1970	-2453
▁Oliv	-2454
▁pers	-2455
▁previously	-2456
wh	-2457
itz	-2458
ula	-2459
pper	-2460
▁Day	-2461
▁Tech	-2462
▁soon	-2463
▁replaced	-2464
▁commercial	-2465
ein	-2466
onc	-2467
asion	-2468
ributed	-2469
▁Florida	-2470
BC	-2471
olic	-2472
▁ask	-2473
erved	-2474
▁Best	-2475
▁must	-2476
▁maint	-2477
▁business	-2478
▁interview	-2479
gl	-2480
▁pain	-2481
espite	-2482
▁clear	-2483
ription	-2484
▁Ag	-2485
▁Bo	-2486
▁Sm	-2487
abit	-2488
osing	-2489
▁writer	-2490
▁Michael	-2491
▁quarter	-2492
▁°	-2493
▁Fe	-2494
ming	-2495
▁Que	-2496
▁unc	-2497
▁trib	-2498
▁Egypt	-2499
▁threat	-2500
AF	-2501
ania	-2502
oney	-2503
▁Dep	-2504
▁mph	-2505
▁2000	-2506
▁units	-2507
▁estimated	-2508
iff	-2509
ulf	-2510
aker	-2511
omas	-2512
▁pen	-2513
▁1990	-2514
▁Corp	-2515
▁Brown	-2516
▁court	-2517
ibility	-2518
▁Canada	-2519
▁Richard	-2520
▁specific	-2521
▁36	-2522
band	-2523
▁Vir	-2524
▁pur	-2525
acing	-2526
▁Mont	-2527
▁surf	-2528
▁react	-2529
▁joined	-2530
▁claimed	-2531
▁highest	-2532
for	-2533
men	-2534
ching	-2535
ulated	-2536
▁Times	-2537
▁contr	-2538
ecutive	-2539
▁placed	-2540
▁involved	-2541
▁Pe	-2542
▁fly	-2543
ville	-2544
▁priv	-2545
▁First	-2546
▁Henry	-2547
▁signed	-2548
▁western	-2549
▁suggested	-2550
leg	-2551
▁Ac	-2552
▁183	-2553
▁Bus	-2554
elled	-2555
▁parts	-2556
▁Govern	-2557
▁Japanese	-2558
mb	-2559
▁45	-2560
▁Carol	-2561
▁intens	-2562
▁tru	-2563
thlet	-2564
▁hous	-2565
▁India	-2566
▁Super	-2567
▁Vietn	-2568
▁change	-2569
▁itself	-2570
▁league	-2571
▁proper	-2572
▁President	-2573
anna	-2574
▁esp	-2575
▁inj	-2576
▁rap	-2577
▁shot	-2578
▁Mexico	-2579
▁School	-2580
▁average	-2581
ume	-2582
▁Sun	-2583
▁don	-2584
▁Card	-2585
▁Cong	-2586
▁Most	-2587
▁hard	-2588
▁taking	-2589
▁available	-2590
urg	-2591
▁ey	-2592
▁Hel	-2593
ready	-2594
ronic	-2595
▁Hall	-2596
▁break	-2597
▁scene	-2598
▁except	-2599
▁brother	-2600
▁transfer	-2601
▁transport	-2602
▁introduced	-2603
St	-2604
▁hit	-2605
▁heav	-2606
▁whose	-2607
▁village	-2608
▁recording	-2609
▁Pac	-2610
▁Gold	-2611
▁race	-2612
▁rail	-2613
▁stop	-2614
▁wood	-2615
porary	-2616
▁subject	-2617
rd	-2618
ze	-2619
▁60	-2620
▁My	-2621
▁App	-2622
▁Tor	-2623
▁grad	-2624
▁phys	-2625
▁slow	-2626
▁Irish	-2627
▁approx	-2628
▁religious	-2629
go	-2630
▁gra	-2631
achel	-2632
atory	-2633
▁Star	-2634
▁educ	-2635
▁network	-2636
rack	-2637
▁mem	-2638
▁nine	-2639
▁told	-2640
▁names	-2641
▁remov	-2642
▁shows	-2643
▁damaged	-2644
iqu	-2645
▁Me	-2646
▁abs	-2647
▁cru	-2648
arily	-2649
▁1960	-2650
▁piec	-2651
▁test	-2652
▁social	-2653
▁turned	-2654
▁Britain	-2655
▁capital	-2656
▁independ	-2657
▁increasing	-2658
▁ap	-2659
enes	-2660
▁Mos	-2661
▁cal	-2662
▁chap	-2663
▁give	-2664
▁Great	-2665
▁lines	-2666
oration	-2667
▁Scient	-2668
▁Republic	-2669
▁structure	-2670
ha	-2671
hib	-2672
▁fr	-2673
aled	-2674
▁feel	-2675
▁determ	-2676
▁nearly	-2677
▁despite	-2678
▁appointed	-2679
odies	-2680
▁Zeal	-2681
▁cycl	-2682
▁size	-2683
▁Union	-2684
▁complet	-2685
▁community	-2686
to	-2687
den	-2688
ateg	-2689
rang	-2690
▁184	-2691
▁den	-2692
▁bill	-2693
▁date	-2694
▁liter	-2695
▁Oldham	-2696
▁econom	-2697
▁passed	-2698
▁surround	-2699
▁international	-2700
irt	-2701
oul	-2702
rian	-2703
▁fut	-2704
inese	-2705
hedral	-2706
▁debut	-2707
▁might	-2708
▁occup	-2709
▁score	-2710
▁withd	-2711
ecially	-2712
osaurus	-2713
▁Thomas	-2714
▁immedi	-2715
▁Olivier	-2716
▁certain	-2717
▁establish	-2718
▁initially	-2719
As	-2720
▁?	-2721
▁La	-2722
lict	-2723
▁cas	-2724
▁pot	-2725
▁tow	-2726
▁deal	-2727
▁disp	-2728
▁going	-2729
▁archae	-2730
▁assist	-2731
▁Pacific	-2732
▁already	-2733
▁winning	-2734
▁particip	-2735
ication	-2736
▁failed	-2737
▁states	-2738
▁Zealand	-2739
rag	-2740
fect	-2741
ires	-2742
▁Jin	-2743
▁Whe	-2744
▁doc	-2745
▁male	-2746
▁rain	-2747
ability	-2748
▁forest	-2749
▁Chinese	-2750
▁language	-2751
▁probably	-2752
▁training	-2753
▁according	-2754
▁especially	-2755
gu	-2756
▁key	-2757
▁Cath	-2758
▁food	-2759
▁issue	-2760
▁minor	-2761
▁depict	-2762
ification	-2763
nel	-2764
▁Po	-2765
bert	-2766
▁III	-2767
▁aut	-2768
▁2002	-2769
▁daugh	-2770
▁studio	-2771
ady	-2772
▁spent	-2773
ference	-2774
▁History	-2775
▁arrived	-2776
▁forward	-2777
▁ordered	-2778
aut	-2779
aval	-2780
ship	-2781
▁Ste	-2782
stein	-2783
▁That	-2784
▁army	-2785
▁block	-2786
▁visit	-2787
ilities	-2788
▁Awards	-2789
▁enough	-2790
▁Canadian	-2791
▁remaining	-2792
▁Gr	-2793
▁NY	-2794
chol	-2795
onse	-2796
ties	-2797
▁dro	-2798
▁Navy	-2799
▁Sing	-2800
▁fail	-2801
▁mixed	-2802
▁sometimes	-2803
zz	-2804
lor	-2805
owl	-2806
▁Ma	-2807
▁di	-2808
back	-2809
▁come	-2810
▁Associ	-2811
▁reviews	-2812
▁complete	-2813
▁required	-2814
▁approximately	-2815
of	-2816
quar	-2817
▁Don	-2818
▁imm	-2819
orial	-2820
ranch	-2821
▁Creek	-2822
▁lower	-2823
▁touch	-2824
▁center	-2825
▁latter	-2826
▁UK	-2827
lymp	-2828
▁Art	-2829
▁Ter	-2830
▁Rose	-2831
▁Later	-2832
▁Africa	-2833
▁Guitar	-2834
▁remain	-2835
▁includes	-2836
▁beginning	-2837
down	-2838
inct	-2839
▁Law	-2840
▁Met	-2841
▁Soc	-2842
inist	-2843
▁Angel	-2844
▁Olymp	-2845
▁Cr	-2846
etic	-2847
▁Inf	-2848
▁sem	-2849
stant	-2850
under	-2851
▁Film	-2852
▁Penn	-2853
▁Peter	-2854
▁journ	-2855
▁woman	-2856
▁limited	-2857
▁prevent	-2858
▁decision	-2859
edy	-2860
iest	-2861
▁Hol	-2862
▁Ever	-2863
▁dead	-2864
▁happ	-2865
▁better	-2866
▁changes	-2867
▁usually	-2868
▁Regiment	-2869
▁students	-2870
▁additional	-2871
aby	-2872
▁38	-2873
▁emb	-2874
▁stay	-2875
▁running	-2876
▁response	-2877
▁president	-2878
▁Dr	-2879
adron	-2880
▁ended	-2881
▁larger	-2882
▁concern	-2883
▁positive	-2884
aren	-2885
erat	-2886
▁quest	-2887
▁mention	-2888
▁magazine	-2889
▁supported	-2890
gar	-2891
ios	-2892
▁80	-2893
uals	-2894
▁type	-2895
▁Award	-2896
▁notes	-2897
▁prior	-2898
▁police	-2899
▁pressure	-2900
▁Hurricane	-2901
▁depression	-2902
oor	-2903
▁TV	-2904
enty	-2905
reak	-2906
▁Nort	-2907
▁wide	-2908
▁birds	-2909
▁birth	-2910
▁compl	-2911
▁amount	-2912
▁Stud	-2913
▁lyric	-2914
▁shown	-2915
▁related	-2916
rief	-2917
▁Mer	-2918
▁Tom	-2919
aring	-2920
rison	-2921
▁Rout	-2922
▁face	-2923
uments	-2924
▁Scott	-2925
▁fifth	-2926
▁future	-2927
▁feature	-2928
▁Billboard	-2929
arts	-2930
▁Hot	-2931
▁Var	-2932
▁1980	-2933
▁appl	-2934
▁provide	-2935
▁defeated	-2936
ani	-2937
▁anc	-2938
▁der	-2939
▁1995	-2940
▁Camp	-2941
▁Hill	-2942
▁staff	-2943
▁discovered	-2944
Al	-2945
hou	-2946
ifa	-2947
▁75	-2948
bers	-2949
▁Jer	-2950
▁sat	-2951
▁sil	-2952
▁Early	-2953
▁temper	-2954
▁section	-2955
ney	-2956
▁cm	-2957
enon	-2958
▁Ant	-2959
ishop	-2960
riage	-2961
▁From	-2962
▁doll	-2963
▁frequ	-2964
▁Rachel	-2965
▁becoming	-2966
com	-2967
gely	-2968
rael	-2969
eding	-2970
▁Fort	-2971
▁word	-2972
▁Charles	-2973
uf	-2974
ils	-2975
key	-2976
oke	-2977
oys	-2978
unt	-2979
▁Sy	-2980
▁vot	-2981
ector	-2982
▁Oper	-2983
▁exam	-2984
▁Colle	-2985
▁Virgin	-2986
▁smaller	-2987
raw	-2988
itte	-2989
▁Arab	-2990
▁flow	-2991
▁idea	-2992
idents	-2993
▁colon	-2994
▁domin	-2995
▁groups	-2996
▁screen	-2997
▁Western	-2998
▁percent	-2999
▁intended	-3000
▁Scientology	-3001
asy	-3002
▁Rh	-3003
ands	-3004
well	-3005
▁Pat	-3006
▁fir	-3007
iforn	-3008
inent	-3009
selves	-3010
▁Light	-3011
▁fleet	-3012
▁radio	-3013
▁metres	-3014
▁mostly	-3015
▁conclud	-3016
▁discuss	-3017
▁themselves	-3018
▁professional	-3019
era	-3020
ples	-3021
▁Bel	-3022
anies	-3023
▁2016	-3024
▁Route	-3025
▁likely	-3026
▁Wheeler	-3027
▁minutes	-3028
▁musical	-3029
▁surface	-3030
▁captured	-3031
▁referred	-3032
ror	-3033
cean	-3034
iano	-3035
uing	-3036
▁Tur	-3037
anish	-3038
imate	-3039
▁Year	-3040
▁office	-3041
▁largely	-3042
▁problems	-3043
▁Association	-3044
ras	-3045
▁FI	-3046
rain	-3047
▁Mil	-3048
▁Pri	-3049
▁lab	-3050
▁try	-3051
▁und	-3052
▁link	-3053
▁indic	-3054
▁media	-3055
▁contem	-3056
▁summer	-3057
quarters	-3058
▁Despite	-3059
▁entered	-3060
iser	-3061
▁Res	-3062
▁ens	-3063
isions	-3064
orning	-3065
▁Earth	-3066
▁Frank	-3067
▁makes	-3068
▁shoot	-3069
▁moving	-3070
▁broadcast	-3071
gen	-3072
▁Wood	-3073
▁keep	-3074
▁pair	-3075
▁self	-3076
▁observ	-3077
▁Californ	-3078
▁contains	-3079
▁Parliament	-3080
▁constructed	-3081
lex	-3082
ises	-3083
▁inn	-3084
▁sea	-3085
▁1999	-3086
▁money	-3087
▁voice	-3088
▁Israel	-3089
▁Portug	-3090
▁Council	-3091
▁concept	-3092
iva	-3093
ylv	-3094
ruit	-3095
▁Haw	-3096
▁Ott	-3097
▁Sch	-3098
▁Russ	-3099
▁adop	-3100
▁cele	-3101
veston	-3102
▁guitar	-3103
▁nature	-3104
▁effects	-3105
kan	-3106
ergy	-3107
onym	-3108
▁Sam	-3109
▁1950	-3110
▁Croat	-3111
▁grant	-3112
▁Jewish	-3113
▁listed	-3114
▁ranked	-3115
▁stories	-3116
▁majority	-3117
het	-3118
▁How	-3119
hester	-3120
▁create	-3121
▁consist	-3122
▁research	-3123
▁experience	-3124
ma	-3125
▁70	-3126
▁Ver	-3127
▁cle	-3128
urity	-3129
▁Chic	-3130
▁meth	-3131
▁favor	-3132
▁schol	-3133
▁leaving	-3134
▁critical	-3135
aven	-3136
▁Bey	-3137
▁Not	-3138
▁Sov	-3139
ously	-3140
owler	-3141
▁thus	-3142
▁vers	-3143
▁Inter	-3144
▁brief	-3145
▁earth	-3146
eratops	-3147
▁script	-3148
▁primary	-3149
▁controll	-3150
oud	-3151
▁33	-3152
anks	-3153
pool	-3154
▁Mart	-3155
▁Ross	-3156
▁deep	-3157
▁gods	-3158
▁runs	-3159
ership	-3160
▁Under	-3161
▁films	-3162
▁lived	-3163
▁agreed	-3164
▁always	-3165
▁lyrics	-3166
▁location	-3167
▁officers	-3168
de	-3169
▁ri	-3170
teen	-3171
▁rare	-3172
change	-3173
atively	-3174
ospital	-3175
▁underst	-3176
▁launched	-3177
▁California	-3178
dle	-3179
▁ded	-3180
aches	-3181
lands	-3182
order	-3183
▁prem	-3184
illery	-3185
▁teams	-3186
▁minute	-3187
▁attract	-3188
▁counter	-3189
▁culture	-3190
▁quickly	-3191
▁Catholic	-3192
Th	-3193
▁x	-3194
rown	-3195
▁Sur	-3196
▁amb	-3197
▁Serv	-3198
▁fans	-3199
▁meant	-3200
▁episodes	-3201
▁occurred	-3202
▁proposed	-3203
lo	-3204
oir	-3205
▁lo	-3206
imum	-3207
▁400	-3208
▁Pet	-3209
▁uns	-3210
▁adapt	-3211
▁access	-3212
▁whether	-3213
▁assigned	-3214
▁increase	-3215
AS	-3216
rol	-3217
umn	-3218
▁Nic	-3219
▁hop	-3220
arent	-3221
▁cann	-3222
▁cred	-3223
▁dram	-3224
▁poet	-3225
▁forms	-3226
▁defeat	-3227
▁Chicago	-3228
▁appears	-3229
▁changed	-3230
▁product	-3231
▁traffic	-3232
▁destroyed	-3233
awn	-3234
▁32	-3235
iant	-3236
▁asp	-3237
▁log	-3238
▁Fore	-3239
▁tons	-3240
▁Saint	-3241
▁trade	-3242
▁Battle	-3243
▁longer	-3244
▁meaning	-3245
▁commission	-3246
ón	-3247
mas	-3248
▁Mr	-3249
oned	-3250
▁job	-3251
▁mom	-3252
▁ran	-3253
anced	-3254
ortun	-3255
▁1940	-3256
During	-3257
undred	-3258
▁bound	-3259
▁nucle	-3260
▁princ	-3261
▁theme	-3262
▁Central	-3263
▁numbers	-3264
▁soldiers	-3265
▁competition	-3266
▁Os	-3267
ixon	-3268
▁Tre	-3269
▁kil	-3270
thing	-3271
▁Camb	-3272
▁Form	-3273
▁Scot	-3274
▁acqu	-3275
▁bomb	-3276
▁girl	-3277
▁Latin	-3278
▁focus	-3279
▁leave	-3280
▁newsp	-3281
▁reach	-3282
▁awarded	-3283
▁carried	-3284
sen	-3285
▁300	-3286
▁Brad	-3287
▁Ital	-3288
▁concert	-3289
▁private	-3290
▁consider	-3291
▁daughter	-3292
▁conducted	-3293
lin	-3294
ows	-3295
▁90	-3296
anas	-3297
▁Tex	-3298
▁env	-3299
ening	-3300
▁1998	-3301
▁natural	-3302
▁overall	-3303
▁records	-3304
▁subsequently	-3305
ny	-3306
▁BC	-3307
cing	-3308
imin	-3309
▁Ben	-3310
▁deg	-3311
▁1930	-3312
▁anti	-3313
▁dism	-3314
▁emer	-3315
usband	-3316
▁Enter	-3317
▁cause	-3318
▁plans	-3319
▁thick	-3320
▁tourn	-3321
itation	-3322
▁Northern	-3323
▁fighting	-3324
bar	-3325
eds	-3326
olk	-3327
tar	-3328
itor	-3329
▁box	-3330
▁lay	-3331
▁sus	-3332
▁ult	-3333
itude	-3334
▁1993	-3335
▁kind	-3336
▁rein	-3337
ective	-3338
▁graph	-3339
▁takes	-3340
▁whole	-3341
▁double	-3342
▁election	-3343
▁industry	-3344
▁Following	-3345
▁commented	-3346
▁influence	-3347
▁+	-3348
ken	-3349
▁Haifa	-3350
▁asked	-3351
▁bring	-3352
iverpool	-3353
▁finally	-3354
▁serious	-3355
▁Jam	-3356
▁dig	-3357
▁jud	-3358
▁tar	-3359
alled	-3360
▁Many	-3361
▁Villa	-3362
▁throw	-3363
▁upper	-3364
stitute	-3365
▁Second	-3366
▁centre	-3367
▁ending	-3368
▁method	-3369
▁greater	-3370
▁compared	-3371
NA	-3372
▁47	-3373
▁Ho	-3374
▁If	-3375
▁Tw	-3376
ells	-3377
eyer	-3378
gian	-3379
ittee	-3380
▁Arch	-3381
▁Minn	-3382
▁Tour	-3383
▁done	-3384
itting	-3385
▁party	-3386
▁purch	-3387
ologist	-3388
▁accomp	-3389
▁flight	-3390
▁reject	-3391
▁unable	-3392
▁married	-3393
▁positions	-3394
II	-3395
TV	-3396
aily	-3397
alys	-3398
ging	-3399
▁Tay	-3400
▁big	-3401
▁our	-3402
erset	-3403
istics	-3404
▁rapid	-3405
▁market	-3406
▁personal	-3407
▁standard	-3408
▁buildings	-3409
ros	-3410
▁39	-3411
agon	-3412
▁Tra	-3413
▁got	-3414
▁yet	-3415
▁Back	-3416
▁Vict	-3417
▁Nixon	-3418
▁Texas	-3419
▁books	-3420
▁earned	-3421
▁Galveston	-3422
ada	-3423
▁Mal	-3424
▁mor	-3425
▁Cour	-3426
▁dark	-3427
▁hero	-3428
▁phot	-3429
▁begins	-3430
▁issued	-3431
▁living	-3432
▁collect	-3433
▁conflict	-3434
ria	-3435
▁Its	-3436
▁dom	-3437
▁mur	-3438
aught	-3439
▁1996	-3440
▁Lady	-3441
▁Alice	-3442
▁terms	-3443
▁marked	-3444
▁directly	-3445
▁Liverpool	-3446
▁traditional	-3447
umed	-3448
▁Sal	-3449
▁sal	-3450
athan	-3451
house	-3452
▁Lake	-3453
▁aband	-3454
▁Polish	-3455
▁health	-3456
▁scenes	-3457
▁status	-3458
▁African	-3459
▁marriage	-3460
▁movement	-3461
anz	-3462
rey	-3463
▁Dj	-3464
bery	-3465
▁Del	-3466
▁Sol	-3467
▁path	-3468
everal	-3469
▁figure	-3470
▁helped	-3471
▁slight	-3472
adm	-3473
aded	-3474
eway	-3475
itch	-3476
odon	-3477
rate	-3478
▁pil	-3479
embly	-3480
rical	-3481
▁norm	-3482
▁sched	-3483
▁batter	-3484
▁experi	-3485
▁Command	-3486
▁attacks	-3487
▁planned	-3488
▁schools	-3489
▁starting	-3490
▁suffered	-3491
▁Christmas	-3492
▁information	-3493
▁rh	-3494
bury	-3495
▁lif	-3496
▁Cross	-3497
▁Storm	-3498
▁Taylor	-3499
▁giving	-3500
▁source	-3501
▁Spanish	-3502
▁husband	-3503
▁inspired	-3504
▁associated	-3505
▁performances	-3506
At	-3507
ien	-3508
cend	-3509
ibly	-3510
▁Bob	-3511
▁Lou	-3512
▁Rob	-3513
▁Foot	-3514
▁Over	-3515
▁plot	-3516
▁Party	-3517
▁closed	-3518
▁transl	-3519
▁condoms	-3520
▁initial	-3521
▁machine	-3522
▁division	-3523
▁presented	-3524
imb	-3525
▁Up	-3526
atre	-3527
ican	-3528
▁Dem	-3529
▁Hum	-3530
▁Nor	-3531
▁via	-3532
▁room	-3533
▁image	-3534
▁polic	-3535
▁raised	-3536
▁Infantry	-3537
▁greatest	-3538
▁presence	-3539
▁education	-3540
olf	-3541
uff	-3542
ares	-3543
erve	-3544
like	-3545
sylv	-3546
▁pay	-3547
orpor	-3548
▁Club	-3549
▁Tenn	-3550
▁fell	-3551
▁susp	-3552
▁unit	-3553
▁uses	-3554
▁Paris	-3555
▁chall	-3556
▁wound	-3557
ections	-3558
▁Series	-3559
▁Soviet	-3560
▁inters	-3561
▁nearby	-3562
▁hundred	-3563
▁writers	-3564
▁continue	-3565
▁document	-3566
án	-3567
rid	-3568
▁42	-3569
iami	-3570
iated	-3571
▁Long	-3572
▁park	-3573
▁prep	-3574
▁Mosley	-3575
▁Another	-3576
▁complex	-3577
▁covered	-3578
▁cyclone	-3579
▁Carolina	-3580
▁Pennsylv	-3581
▁collection	-3582
zy	-3583
essa	-3584
tain	-3585
▁Tem	-3586
▁enj	-3587
imony	-3588
inner	-3589
itect	-3590
▁Acad	-3591
▁Cast	-3592
▁talk	-3593
▁weap	-3594
▁habit	-3595
▁space	-3596
▁annual	-3597
▁conver	-3598
▁College	-3599
▁composed	-3600
▁services	-3601
oncé	-3602
▁Out	-3603
▁sev	-3604
ether	-3605
▁1997	-3606
▁Just	-3607
▁Queen	-3608
▁metal	-3609
▁bodies	-3610
▁really	-3611
▁waters	-3612
▁figures	-3613
▁Somerset	-3614
▁extended	-3615
▁numerous	-3616
▁producer	-3617
▁cathedral	-3618
▁commander	-3619
▁territory	-3620
iny	-3621
▁Go	-3622
anta	-3623
pted	-3624
▁Fin	-3625
▁Ram	-3626
▁hot	-3627
ports	-3628
uries	-3629
▁Jane	-3630
▁Mill	-3631
▁Trans	-3632
▁things	-3633
▁vocals	-3634
▁proteins	-3635
▁something	-3636
▁individual	-3637
ped	-3638
ipal	-3639
▁Ill	-3640
ricket	-3641
▁Museum	-3642
▁artist	-3643
▁financ	-3644
▁necess	-3645
▁Beyoncé	-3646
▁Nations	-3647
▁Tropical	-3648
▁investig	-3649
▁operation	-3650
apo	-3651
uit	-3652
▁Dam	-3653
▁Six	-3654
▁saf	-3655
▁tax	-3656
▁pick	-3657
estival	-3658
▁detail	-3659
▁highly	-3660
▁impact	-3661
▁morning	-3662
▁request	-3663
▁attacked	-3664
▁attempts	-3665
▁strength	-3666
▁companies	-3667
ado	-3668
hic	-3669
▁44	-3670
ding	-3671
omer	-3672
pole	-3673
▁Che	-3674
▁bad	-3675
▁era	-3676
adium	-3677
▁Live	-3678
▁dise	-3679
▁prec	-3680
▁symb	-3681
admium	-3682
vement	-3683
▁Busch	-3684
▁Games	-3685
▁Somal	-3686
▁speed	-3687
ribution	-3688
▁Germany	-3689
▁recover	-3690
▁interact	-3691
▁artillery	-3692
▁immediately	-3693
▁Lo	-3694
isher	-3695
track	-3696
▁plat	-3697
▁purs	-3698
▁spir	-3699
arents	-3700
atives	-3701
▁piano	-3702
▁stone	-3703
isation	-3704
▁confir	-3705
▁tracks	-3706
▁Service	-3707
▁kilomet	-3708
▁nuclear	-3709
▁removed	-3710
▁Squadron	-3711
▁allowing	-3712
▁distance	-3713
▁powerful	-3714
▁situation	-3715
▁Pennsylvania	-3716
▁AI	-3717
iple	-3718
onna	-3719
aging	-3720
andid	-3721
▁kick	-3722
▁purp	-3723
▁rate	-3724
▁Alkan	-3725
▁blood	-3726
▁Victor	-3727
▁inside	-3728
▁intern	-3729
▁needed	-3730
▁peaked	-3731
▁search	-3732
▁secret	-3733
▁sexual	-3734
▁Jackson	-3735
▁advance	-3736
▁friends	-3737
▁offered	-3738
▁studies	-3739
▁variety	-3740
▁selected	-3741
oura	-3742
rial	-3743
▁182	-3744
▁Los	-3745
izing	-3746
▁1991	-3747
▁mole	-3748
▁stra	-3749
▁text	-3750
▁Miami	-3751
▁Water	-3752
▁coach	-3753
▁means	-3754
▁copies	-3755
▁native	-3756
▁Scotland	-3757
▁attempted	-3758
▁countries	-3759
▁headquarters	-3760
een	-3761
ims	-3762
ora	-3763
rie	-3764
▁51	-3765
▁Land	-3766
▁Open	-3767
▁rule	-3768
▁Their	-3769
▁hands	-3770
▁advant	-3771
▁casual	-3772
▁celebr	-3773
▁widely	-3774
▁scoring	-3775
▁responsible	-3776
▁respectively	-3777
alty	-3778
hood	-3779
send	-3780
ware	-3781
▁ang	-3782
▁har	-3783
▁max	-3784
annel	-3785
▁sets	-3786
▁China	-3787
▁genus	-3788
▁grand	-3789
▁extrem	-3790
▁higher	-3791
▁describes	-3792
▁touchdown	-3793
▁Department	-3794
▁controvers	-3795
▁appearances	-3796
MS	-3797
aped	-3798
ends	-3799
iron	-3800
▁Are	-3801
▁Gar	-3802
▁1992	-3803
▁Jose	-3804
▁canc	-3805
▁Corps	-3806
▁Since	-3807
▁course	-3808
▁middle	-3809
▁constit	-3810
▁heavily	-3811
▁observed	-3812
▁Dan	-3813
▁Off	-3814
▁ess	-3815
ellig	-3816
illed	-3817
shire	-3818
▁1994	-3819
▁magn	-3820
▁seem	-3821
▁Meyer	-3822
▁adult	-3823
▁below	-3824
▁enjoy	-3825
▁sixth	-3826
▁xenon	-3827
▁compos	-3828
▁relief	-3829
▁display	-3830
▁meeting	-3831
▁reduced	-3832
▁Virginia	-3833
▁administ	-3834
▁37	-3835
▁48	-3836
▁Er	-3837
▁Rad	-3838
▁syn	-3839
esota	-3840
force	-3841
light	-3842
rance	-3843
umber	-3844
▁Alex	-3845
▁blue	-3846
▁jump	-3847
▁Three	-3848
▁active	-3849
▁singer	-3850
ulations	-3851
▁matches	-3852
▁audience	-3853
▁opportun	-3854
▁resulted	-3855
▁concluded	-3856
FA	-3857
▁76	-3858
▁Rev	-3859
▁hol	-3860
akapo	-3861
inkel	-3862
uated	-3863
▁Midd	-3864
▁Post	-3865
▁corn	-3866
▁hour	-3867
▁true	-3868
▁wing	-3869
▁paper	-3870
▁shell	-3871
▁instit	-3872
▁activity	-3873
▁activities	-3874
▁completely	-3875
isk	-3876
isl	-3877
▁pu	-3878
room	-3879
utch	-3880
▁Emp	-3881
▁Sea	-3882
▁cer	-3883
athus	-3884
▁Cons	-3885
▁Time	-3886
▁bene	-3887
▁Chris	-3888
▁Hawai	-3889
▁Center	-3890
▁disapp	-3891
ervation	-3892
▁Italian	-3893
▁managed	-3894
▁stating	-3895
▁Football	-3896
▁question	-3897
▁revealed	-3898
▁Minnesota	-3899
▁contemporary	-3900
hew	-3901
ift	-3902
beer	-3903
▁Bec	-3904
▁Bol	-3905
▁Inn	-3906
▁Jul	-3907
ipped	-3908
▁Cont	-3909
▁drum	-3910
▁Major	-3911
▁Smith	-3912
▁trees	-3913
▁levels	-3914
▁quality	-3915
▁refused	-3916
▁declared	-3917
▁separate	-3918
esb	-3919
bird	-3920
eres	-3921
rowd	-3922
▁pun	-3923
acher	-3924
ounds	-3925
ecting	-3926
▁Force	-3927
▁brown	-3928
▁Rosebery	-3929
▁approach	-3930
▁contrast	-3931
inkelstein	-3932
bed	-3933
▁Ka	-3934
▁du	-3935
ingu	-3936
▁Cor	-3937
▁Pit	-3938
▁lot	-3939
estic	-3940
peror	-3941
stone	-3942
▁Dist	-3943
▁webs	-3944
▁Braat	-3945
▁Shiva	-3946
▁carry	-3947
▁model	-3948
▁today	-3949
▁vocal	-3950
▁recent	-3951
▁parents	-3952
▁respond	-3953
▁featuring	-3954
▁reception	-3955
▁typically	-3956
▁background	-3957
▁historical	-3958
▁university	-3959
aha	-3960
iro	-3961
hold	-3962
road	-3963
▁Sir	-3964
▁Yue	-3965
▁pow	-3966
anger	-3967
itual	-3968
▁Blue	-3969
▁Capt	-3970
▁Conf	-3971
▁beat	-3972
▁chem	-3973
▁emot	-3974
▁hair	-3975
▁walk	-3976
orship	-3977
▁displ	-3978
▁peace	-3979
▁plays	-3980
▁vehic	-3981
▁issues	-3982
▁nation	-3983
▁Society	-3984
▁actions	-3985
▁expected	-3986
▁conditions	-3987
▁52	-3988
iled	-3989
ocks	-3990
ogue	-3991
ying	-3992
▁150	-3993
▁inh	-3994
▁roy	-3995
▁rear	-3996
▁famil	-3997
▁houses	-3998
▁mainly	-3999
▁weaken	-4000
▁assault	-4001
▁becomes	-4002
▁efforts	-4003
▁attention	-4004
ype	-4005
▁Om	-4006
▁Bre	-4007
▁Cat	-4008
▁Sar	-4009
▁mel	-4010
usion	-4011
▁wear	-4012
eption	-4013
▁Court	-4014
▁draft	-4015
▁instr	-4016
▁offer	-4017
essions	-4018
▁Fowler	-4019
▁specim	-4020
▁strugg	-4021
▁Southern	-4022
▁residents	-4023
BA	-4024
ka	-4025
asc	-4026
bon	-4027
emic	-4028
oses	-4029
ufact	-4030
▁elev	-4031
▁Green	-4032
▁sense	-4033
▁athlet	-4034
▁recomm	-4035
▁titles	-4036
▁Ottoman	-4037
▁calling	-4038
▁demonst	-4039
▁protein	-4040
▁actually	-4041
▁soundtrack	-4042
me	-4043
edo	-4044
▁34	-4045
▁Av	-4046
▁Je	-4047
▁Li	-4048
▁sn	-4049
enge	-4050
▁Arg	-4051
▁Hal	-4052
▁Jim	-4053
ledge	-4054
▁Both	-4055
▁poly	-4056
onents	-4057
▁Charl	-4058
▁board	-4059
▁crowd	-4060
▁roles	-4061
▁thous	-4062
▁write	-4063
▁altern	-4064
▁cannot	-4065
▁defend	-4066
▁struck	-4067
▁Highway	-4068
▁Johnson	-4069
▁seasons	-4070
▁Anderson	-4071
▁accepted	-4072
▁achieved	-4073
▁architect	-4074
▁Government	-4075
ipl	-4076
ply	-4077
▁Ro	-4078
anes	-4079
berg	-4080
uese	-4081
▁Pre	-4082
▁nin	-4083
▁thr	-4084
pping	-4085
▁Hait	-4086
▁resc	-4087
alysis	-4088
ension	-4089
utions	-4090
▁Franc	-4091
▁fruit	-4092
▁types	-4093
▁scient	-4094
ications	-4095
▁Vietnam	-4096
▁practice	-4097
wen	-4098
▁lb	-4099
roll	-4100
▁181	-4101
▁cam	-4102
▁dyn	-4103
anded	-4104
echan	-4105
eller	-4106
▁Balt	-4107
▁Wild	-4108
▁musc	-4109
▁scul	-4110
anning	-4111
▁avoid	-4112
▁rough	-4113
irection	-4114
▁Academy	-4115
▁fiction	-4116
▁distinct	-4117
▁infantry	-4118
▁sequence	-4119
▁primarily	-4120
▁Portuguese	-4121
iles	-4122
▁Des	-4123
▁Fur	-4124
▁owned	-4125
▁plant	-4126
▁sales	-4127
▁Secret	-4128
▁combat	-4129
▁spread	-4130
▁twenty	-4131
▁elected	-4132
▁slightly	-4133
ams	-4134
met	-4135
use	-4136
▁suc	-4137
intin	-4138
ograp	-4139
right	-4140
▁1986	-4141
▁Turn	-4142
▁sust	-4143
ceeded	-4144
▁Group	-4145
▁extra	-4146
▁heart	-4147
▁scale	-4148
▁sport	-4149
onymous	-4150
▁Illino	-4151
▁Nicole	-4152
▁county	-4153
▁inches	-4154
▁rights	-4155
▁sister	-4156
▁concent	-4157
▁Townsend	-4158
▁affected	-4159
▁Braathens	-4160
▁expressed	-4161
▁northeast	-4162
▁offensive	-4163
AA	-4164
ols	-4165
▁hy	-4166
elsh	-4167
▁180	-4168
▁Def	-4169
▁mis	-4170
▁ple	-4171
ushed	-4172
▁Book	-4173
▁Burn	-4174
▁farm	-4175
▁sout	-4176
▁Horse	-4177
▁Spain	-4178
▁neigh	-4179
▁words	-4180
▁Engine	-4181
▁Prince	-4182
▁showed	-4183
▁officer	-4184
▁progress	-4185
▁Meyerbeer	-4186
igg	-4187
Mont	-4188
igan	-4189
mond	-4190
orus	-4191
▁Att	-4192
▁Dou	-4193
▁Fer	-4194
anasi	-4195
astic	-4196
▁Manc	-4197
▁Spec	-4198
mitted	-4199
▁Louis	-4200
▁excav	-4201
▁Columb	-4202
▁themes	-4203
ironment	-4204
▁ability	-4205
▁combined	-4206
▁battalion	-4207
▁newspaper	-4208
Ch	-4209
daen	-4210
laim	-4211
ovic	-4212
rect	-4213
▁Ann	-4214
▁Lar	-4215
▁Tri	-4216
cript	-4217
▁mess	-4218
▁qual	-4219
esbitt	-4220
▁Civil	-4221
▁horse	-4222
▁Empire	-4223
▁Little	-4224
▁square	-4225
▁titled	-4226
▁portray	-4227
▁cultural	-4228
▁casualties	-4229
50	-4230
▁49	-4231
▁ox	-4232
aine	-4233
▁Adm	-4234
while	-4235
▁says	-4236
▁Tessa	-4237
▁Welsh	-4238
▁Young	-4239
▁cerem	-4240
▁grass	-4241
▁reign	-4242
▁Commun	-4243
▁murder	-4244
▁remark	-4245
▁Angeles	-4246
▁Thunder	-4247
▁Walpole	-4248
▁ancient	-4249
▁produce	-4250
daenathus	-4251
▁earliest	-4252
▁mountain	-4253
▁continues	-4254
▁mentioned	-4255
etts	-4256
inus	-4257
nown	-4258
ogad	-4259
oper	-4260
osen	-4261
▁Way	-4262
arnia	-4263
enant	-4264
ented	-4265
▁1920	-4266
▁Crit	-4267
orpedo	-4268
▁actor	-4269
▁fully	-4270
▁print	-4271
▁narrow	-4272
▁Captain	-4273
▁Olympic	-4274
▁adopted	-4275
▁artists	-4276
▁disease	-4277
▁mission	-4278
▁flooding	-4279
▁manufact	-4280
▁advantage	-4281
▁resulting	-4282
▁influenced	-4283
▁authorities	-4284
▁championship	-4285
osh	-4286
ura	-4287
▁Boy	-4288
▁Cra	-4289
▁spl	-4290
▁Wash	-4291
▁nest	-4292
▁wild	-4293
▁Perón	-4294
▁basis	-4295
▁legal	-4296
▁Tintin	-4297
▁reports	-4298
▁represented	-4299
ella	-4300
helm	-4301
lies	-4302
mark	-4303
▁agg	-4304
lings	-4305
▁Fred	-4306
▁Week	-4307
▁bott	-4308
▁mile	-4309
▁Colon	-4310
▁alone	-4311
▁begin	-4312
▁exhib	-4313
▁sides	-4314
▁tower	-4315
▁bridge	-4316
▁candid	-4317
▁coming	-4318
▁toward	-4319
▁defense	-4320
▁letters	-4321
▁viewers	-4322
▁apparent	-4323
▁withdraw	-4324
▁Manchester	-4325
▁tournament	-4326
bit	-4327
ancy	-4328
writ	-4329
▁Bet	-4330
▁Cap	-4331
▁Mat	-4332
▁hun	-4333
▁rat	-4334
▁News	-4335
▁Ocean	-4336
▁armed	-4337
▁Middle	-4338
▁effort	-4339
▁illust	-4340
▁kakapo	-4341
▁yellow	-4342
▁Records	-4343
▁founded	-4344
▁torpedo	-4345
▁workers	-4346
▁occasion	-4347
▁alongside	-4348
▁direction	-4349
▁northwest	-4350
▁relatively	-4351
lam	-4352
lim	-4353
onn	-4354
ote	-4355
aith	-4356
bour	-4357
iana	-4358
lers	-4359
▁Pop	-4360
▁Tod	-4361
▁Tru	-4362
▁adj	-4363
▁sac	-4364
ulate	-4365
▁1988	-4366
▁emph	-4367
▁hors	-4368
▁rang	-4369
ricult	-4370
▁tried	-4371
▁losing	-4372
▁mechan	-4373
▁cadmium	-4374
▁capture	-4375
▁contact	-4376
▁contain	-4377
▁edition	-4378
▁univers	-4379
▁attended	-4380
▁physical	-4381
▁organized	-4382
▁Washington	-4383
▁officially	-4384
▁Finkelstein	-4385
▁individuals	-4386
▁transferred	-4387
RA	-4388
ux	-4389
ala	-4390
adel	-4391
gend	-4392
▁Fam	-4393
▁ast	-4394
abama	-4395
ental	-4396
prise	-4397
▁Home	-4398
▁neut	-4399
▁behav	-4400
ogadish	-4401
▁acting	-4402
▁perman	-4403
▁proved	-4404
▁winter	-4405
▁Through	-4406
▁measure	-4407
▁pattern	-4408
▁require	-4409
▁rainfall	-4410
▁dedicated	-4411
▁officials	-4412
▁surrounding	-4413
▁64	-4414
rong	-4415
uous	-4416
▁Eva	-4417
▁Fey	-4418
▁Sil	-4419
▁Sum	-4420
imore	-4421
▁Zhou	-4422
▁edge	-4423
▁doing	-4424
▁feder	-4425
▁lives	-4426
▁couple	-4427
▁energy	-4428
ij	-4429
azz	-4430
eer	-4431
ibr	-4432
▁46	-4433
▁wa	-4434
iate	-4435
inem	-4436
izes	-4437
▁Add	-4438
▁Sen	-4439
▁Kent	-4440
▁Prot	-4441
▁folk	-4442
▁mind	-4443
itness	-4444
▁chief	-4445
▁shape	-4446
▁Direct	-4447
▁dissip	-4448
▁prepar	-4449
ogadishu	-4450
▁Nesbitt	-4451
▁divided	-4452
▁follows	-4453
▁shortly	-4454
▁society	-4455
▁Illinois	-4456
▁function	-4457
▁possibly	-4458
▁financial	-4459
▁intensity	-4460
▁Odaenathus	-4461
▁designated	-4462
gal	-4463
▁NC	-4464
kare	-4465
▁Van	-4466
▁eye	-4467
▁Bowl	-4468
▁Fant	-4469
▁Gall	-4470
▁Lord	-4471
▁paid	-4472
▁repe	-4473
▁youn	-4474
▁your	-4475
▁Apple	-4476
▁Ceres	-4477
▁Omaha	-4478
▁faced	-4479
▁older	-4480
▁albums	-4481
▁border	-4482
▁images	-4483
▁legisl	-4484
▁letter	-4485
▁simply	-4486
▁journal	-4487
▁maximum	-4488
▁sources	-4489
▁incorpor	-4490
▁determined	-4491
VD	-4492
can	-4493
▁Bh	-4494
icro	-4495
ugby	-4496
wide	-4497
▁aid	-4498
▁1964	-4499
▁doub	-4500
▁kept	-4501
▁onto	-4502
▁thir	-4503
enture	-4504
inated	-4505
ipment	-4506
▁Clark	-4507
▁movie	-4508
▁piece	-4509
▁Argent	-4510
▁advert	-4511
▁broken	-4512
▁comedy	-4513
▁emphas	-4514
▁master	-4515
▁places	-4516
▁sculpt	-4517
▁portion	-4518
▁Assembly	-4519
▁Reception	-4520
▁potential	-4521
udd	-4522
▁SR	-4523
edar	-4524
▁Arm	-4525
▁Jup	-4526
▁dut	-4527
▁hom	-4528
▁rom	-4529
▁frag	-4530
▁iron	-4531
▁royal	-4532
Station	-4533
lection	-4534
▁Andrew	-4535
▁argued	-4536
▁charge	-4537
▁cities	-4538
▁Independ	-4539
▁domestic	-4540
ety	-4541
▁53	-4542
▁Ca	-4543
agan	-4544
asty	-4545
▁End	-4546
▁Lis	-4547
▁unk	-4548
istry	-4549
▁Good	-4550
▁grew	-4551
▁roll	-4552
▁spot	-4553
▁step	-4554
ihanna	-4555
isters	-4556
▁Fleet	-4557
▁color	-4558
▁depth	-4559
▁sites	-4560
▁Valley	-4561
▁content	-4562
▁projects	-4563
▁suggests	-4564
▁authority	-4565
▁management	-4566
▁PlayStation	-4567
▁Bu	-4568
▁Hu	-4569
▁Kn	-4570
▁Of	-4571
▁ge	-4572
With	-4573
umes	-4574
▁Bir	-4575
▁Dev	-4576
▁Max	-4577
▁say	-4578
▁wor	-4579
▁Kore	-4580
▁Mass	-4581
▁fung	-4582
▁phil	-4583
▁sens	-4584
▁wave	-4585
▁weak	-4586
ertain	-4587
▁Night	-4588
▁artic	-4589
▁homes	-4590
▁paint	-4591
▁share	-4592
▁twice	-4593
acement	-4594
▁Edward	-4595
▁attend	-4596
▁belong	-4597
▁depart	-4598
▁gained	-4599
▁museum	-4600
▁prison	-4601
▁target	-4602
▁causing	-4603
▁schedul	-4604
▁science	-4605
▁website	-4606
▁entrance	-4607
▁hospital	-4608
▁Commission	-4609
▁criticized	-4610
▁structures	-4611
▁ultimately	-4612
▁Big	-4613
▁DVD	-4614
▁Ven	-4615
▁hyd	-4616
▁Dest	-4617
▁Four	-4618
▁Horn	-4619
▁fres	-4620
▁vess	-4621
edkare	-4622
rative	-4623
▁Greek	-4624
▁mouth	-4625
▁DuMont	-4626
▁Joseph	-4627
▁Palest	-4628
▁deploy	-4629
▁interp	-4630
▁Alabama	-4631
▁Jupiter	-4632
▁debuted	-4633
▁defence	-4634
▁dismiss	-4635
▁results	-4636
▁Constant	-4637
▁intellig	-4638
▁formation	-4639
▁containing	-4640
Le	-4641
ML	-4642
gn	-4643
ya	-4644
che	-4645
rel	-4646
▁kg	-4647
atur	-4648
▁Pen	-4649
orter	-4650
▁1947	-4651
▁Prem	-4652
▁core	-4653
▁fast	-4654
▁opin	-4655
▁tail	-4656
▁label	-4657
▁miner	-4658
▁remix	-4659
▁chosen	-4660
▁planet	-4661
▁cricket	-4662
▁foreign	-4663
▁collabor	-4664
▁defensive	-4665
yr	-4666
▁56	-4667
more	-4668
▁120	-4669
▁Bur	-4670
▁fix	-4671
▁pan	-4672
▁inch	-4673
▁enter	-4674
▁Forest	-4675
▁Sarnia	-4676
▁animal	-4677
▁buried	-4678
▁battles	-4679
▁brigade	-4680
▁granted	-4681
▁growing	-4682
▁Varanasi	-4683
▁rejected	-4684
▁security	-4685
▁standing	-4686
▁abandoned	-4687
▁prominent	-4688
▁reference	-4689
▁Thunderbird	-4690
▁consecutive	-4691
▁independent	-4692
▁organization	-4693
bl	-4694
ati	-4695
▁43	-4696
▁Ul	-4697
then	-4698
▁Hib	-4699
▁Lew	-4700
▁ven	-4701
white	-4702
▁1941	-4703
▁Anth	-4704
▁diam	-4705
▁doct	-4706
▁sand	-4707
▁seek	-4708
ocated	-4709
▁Journ	-4710
▁cells	-4711
▁claims	-4712
▁colony	-4713
▁orders	-4714
▁temple	-4715
▁weight	-4716
ographer	-4717
▁Airport	-4718
▁Rihanna	-4719
▁Several	-4720
▁student	-4721
▁visited	-4722
▁Baltimore	-4723
▁condition	-4724
▁therefore	-4725
AFE	-4726
mon	-4727
▁Do	-4728
▁FA	-4729
airs	-4730
mosp	-4731
phia	-4732
iring	-4733
▁Like	-4734
▁SAFE	-4735
▁risk	-4736
▁Child	-4737
▁broke	-4738
▁dress	-4739
▁newly	-4740
▁spect	-4741
duction	-4742
▁Histor	-4743
▁Review	-4744
▁moment	-4745
adelphia	-4746
▁Eastern	-4747
▁regions	-4748
▁seconds	-4749
▁singles	-4750
▁wounded	-4751
ero	-4752
▁Ox	-4753
▁Us	-4754
ears	-4755
resp	-4756
▁BBC	-4757
▁Bon	-4758
▁Sky	-4759
▁tur	-4760
oured	-4761
▁1987	-4762
▁Chap	-4763
▁solo	-4764
asters	-4765
ushing	-4766
▁Helms	-4767
▁ahead	-4768
▁cases	-4769
▁enemy	-4770
▁seems	-4771
▁Indust	-4772
▁height	-4773
fficient	-4774
▁reaching	-4775
▁versions	-4776
▁Institute	-4777
▁equipment	-4778
▁knowledge	-4779
▁nominated	-4780
▁Background	-4781
▁identified	-4782
▁temperature	-4783
An	-4784
When	-4785
ners	-4786
oted	-4787
rete	-4788
▁Gre	-4789
▁bud	-4790
▁tun	-4791
urban	-4792
▁1989	-4793
▁cust	-4794
▁Field	-4795
▁aired	-4796
▁males	-4797
▁campus	-4798
▁unique	-4799
▁Wilhelm	-4800
▁council	-4801
▁element	-4802
▁opposed	-4803
▁problem	-4804
▁returning	-4805
▁supporting	-4806
▁environment	-4807
cy	-4808
mun	-4809
uge	-4810
▁54	-4811
▁65	-4812
▁RA	-4813
ette	-4814
▁Jur	-4815
▁fox	-4816
▁tim	-4817
▁unp	-4818
ading	-4819
ishes	-4820
▁1972	-4821
▁1984	-4822
▁1985	-4823
▁Norm	-4824
▁fired	-4825
▁atmosp	-4826
▁looking	-4827
▁perfect	-4828
▁teacher	-4829
▁unknown	-4830
▁Scottish	-4831
▁analysis	-4832
▁operated	-4833
▁scholars	-4834
▁straight	-4835
▁literature	-4836
▁increasingly	-4837
uct	-4838
▁So	-4839
▁ec	-4840
alle	-4841
ider	-4842
▁Kir	-4843
▁boy	-4844
aming	-4845
ighth	-4846
ortal	-4847
▁Carl	-4848
▁Swed	-4849
▁acad	-4850
▁here	-4851
stream	-4852
▁alter	-4853
▁burns	-4854
▁defin	-4855
▁ideas	-4856
▁molec	-4857
▁McCall	-4858
▁theory	-4859
▁writes	-4860
▁Cardiff	-4861
▁believe	-4862
▁weather	-4863
▁breeding	-4864
▁commonly	-4865
▁Entertain	-4866
▁Mogadishu	-4867
▁confirmed	-4868
▁explained	-4869
▁historian	-4870
▁settlement	-4871
ato	-4872
ych	-4873
▁41	-4874
▁MD	-4875
▁vo	-4876
aved	-4877
▁oil	-4878
▁Common	-4879
▁arrest	-4880
▁strike	-4881
Although	-4882
▁Because	-4883
▁females	-4884
▁herself	-4885
▁singing	-4886
▁systems	-4887
▁Michigan	-4888
▁advanced	-4889
▁economic	-4890
▁landfall	-4891
▁property	-4892
▁stations	-4893
▁Operation	-4894
▁consisted	-4895
▁criticism	-4896
▁controlled	-4897
▁parliament	-4898
▁Philadelphia	-4899
By	-4900
ao	-4901
ads	-4902
awa	-4903
ket	-4904
▁Ll	-4905
illo	-4906
weet	-4907
▁Jon	-4908
asure	-4909
▁1944	-4910
▁Vill	-4911
▁imag	-4912
▁pict	-4913
▁semi	-4914
alions	-4915
▁Class	-4916
▁exped	-4917
▁lands	-4918
▁growth	-4919
▁leader	-4920
▁pieces	-4921
eanwhile	-4922
▁Mounted	-4923
▁deities	-4924
▁dropped	-4925
▁failure	-4926
▁Congress	-4927
▁Egyptian	-4928
▁Williams	-4929
▁creation	-4930
▁maintained	-4931
ga	-4932
ena	-4933
rak	-4934
uan	-4935
▁57	-4936
aria	-4937
hips	-4938
unic	-4939
▁130	-4940
▁Ban	-4941
▁gar	-4942
▁mob	-4943
fully	-4944
inary	-4945
inity	-4946
ordon	-4947
▁Gard	-4948
▁Hart	-4949
▁Stan	-4950
▁fict	-4951
▁Album	-4952
▁guest	-4953
▁honor	-4954
▁Though	-4955
▁arrang	-4956
▁awards	-4957
▁compar	-4958
▁filmed	-4959
▁flying	-4960
▁injury	-4961
▁resemb	-4962
▁federal	-4963
▁freeway	-4964
▁killing	-4965
▁pitched	-4966
Wh	-4967
ees	-4968
ias	-4969
ibb	-4970
onom	-4971
▁600	-4972
▁Bas	-4973
▁Dun	-4974
▁bit	-4975
▁sen	-4976
antly	-4977
ieval	-4978
▁Bost	-4979
▁Lock	-4980
▁mist	-4981
▁tact	-4982
▁task	-4983
ampion	-4984
ashion	-4985
lusion	-4986
▁Italy	-4987
▁Keats	-4988
▁boats	-4989
▁serve	-4990
▁speak	-4991
▁value	-4992
▁Public	-4993
▁belief	-4994
▁horses	-4995
▁humans	-4996
▁matter	-4997
▁actress	-4998
▁battery	-4999
▁mounted	-5000
▁rapidly	-5001
▁restaur	-5002
▁retired	-5003
▁weapons	-5004
▁promoted	-5005
▁religion	-5006
jo	-5007
ips	-5008
kin	-5009
uli	-5010
▁Id	-5011
▁Ry	-5012
▁ut	-5013
ager	-5014
alls	-5015
iced	-5016
ieut	-5017
▁bid	-5018
There	-5019
ersey	-5020
▁Writ	-5021
▁bank	-5022
▁Dutch	-5023
▁Innis	-5024
▁clean	-5025
▁flank	-5026
▁premi	-5027
▁Hamels	-5028
▁column	-5029
▁cougar	-5030
▁passes	-5031
▁Croatia	-5032
▁passing	-5033
▁protest	-5034
▁selling	-5035
▁Djedkare	-5036
▁Minister	-5037
▁accompan	-5038
▁agricult	-5039
▁creating	-5040
▁invasion	-5041
▁multiple	-5042
▁prepared	-5043
▁Americans	-5044
▁connected	-5045
▁promotion	-5046
▁Applewhite	-5047
▁recognized	-5048
▁description	-5049
▁publication	-5050
▁significantly	-5051
rig	-5052
▁mo	-5053
fort	-5054
haps	-5055
icks	-5056
ogen	-5057
▁Den	-5058
▁Der	-5059
▁Luc	-5060
▁ham	-5061
amese	-5062
chers	-5063
▁Matt	-5064
▁bats	-5065
▁data	-5066
itable	-5067
render	-5068
▁Final	-5069
▁Guard	-5070
▁Video	-5071
▁chose	-5072
▁walls	-5073
▁famous	-5074
▁silver	-5075
▁sought	-5076
▁starts	-5077
▁volume	-5078
▁Develop	-5079
▁aspects	-5080
▁deliver	-5081
▁nucleus	-5082
▁seventh	-5083
▁reaction	-5084
▁regarded	-5085
▁necessary	-5086
▁producers	-5087
▁scheduled	-5088
▁popularity	-5089
▁strengthen	-5090
han	-5091
yth	-5092
load	-5093
▁Dis	-5094
▁Meg	-5095
▁Ret	-5096
▁Sub	-5097
aling	-5098
lying	-5099
olved	-5100
▁Even	-5101
▁Gulf	-5102
▁Line	-5103
▁drop	-5104
▁laid	-5105
▁rise	-5106
▁send	-5107
▁virt	-5108
heless	-5109
▁beaut	-5110
▁rival	-5111
▁strik	-5112
▁philos	-5113
▁reform	-5114
standing	-5115
▁Further	-5116
▁landing	-5117
▁sustained	-5118
▁Vietnamese	-5119
ca	-5120
ez	-5121
sw	-5122
arp	-5123
och	-5124
āda	-5125
▁96	-5126
▁Adv	-5127
▁Cre	-5128
▁Leg	-5129
▁Naz	-5130
▁Rog	-5131
▁Ros	-5132
▁USA	-5133
▁fat	-5134
ocked	-5135
ocrat	-5136
stead	-5137
venue	-5138
▁Andy	-5139
▁Jeff	-5140
ifying	-5141
▁Haven	-5142
▁Liber	-5143
▁Never	-5144
▁dated	-5145
▁drive	-5146
▁outer	-5147
▁Cambod	-5148
▁budget	-5149
▁castle	-5150
▁fought	-5151
▁spring	-5152
cription	-5153
▁reflect	-5154
Following	-5155
▁employed	-5156
▁families	-5157
▁currently	-5158
TC	-5159
hm	-5160
ii	-5161
yt	-5162
eed	-5163
ini	-5164
rum	-5165
▁Lu	-5166
▁179	-5167
▁700	-5168
▁Key	-5169
▁pul	-5170
▁row	-5171
ivity	-5172
onent	-5173
orney	-5174
▁1939	-5175
▁Cold	-5176
▁Girl	-5177
▁Mike	-5178
▁Once	-5179
▁Only	-5180
▁Slam	-5181
▁arms	-5182
▁ends	-5183
▁exec	-5184
▁save	-5185
▁tree	-5186
iments	-5187
insula	-5188
▁Domin	-5189
▁Steve	-5190
▁phase	-5191
▁trial	-5192
▁rating	-5193
heastern	-5194
ologists	-5195
▁contained	-5196
▁Conference	-5197
▁facilities	-5198
▁frequently	-5199
▁underground	-5200
20	-5201
ano	-5202
aph	-5203
hat	-5204
iot	-5205
rot	-5206
sea	-5207
▁Gi	-5208
▁NH	-5209
▁la	-5210
thur	-5211
▁Abu	-5212
▁Ari	-5213
▁Ast	-5214
▁Dar	-5215
▁HMS	-5216
▁Mur	-5217
▁arc	-5218
▁bey	-5219
▁wed	-5220
arian	-5221
iance	-5222
ridge	-5223
▁1942	-5224
▁1981	-5225
▁Sund	-5226
▁Work	-5227
▁dial	-5228
▁news	-5229
▁unus	-5230
borough	-5231
mission	-5232
unction	-5233
▁actors	-5234
▁allows	-5235
▁bottom	-5236
▁degree	-5237
▁prefer	-5238
▁simple	-5239
▁Studios	-5240
▁express	-5241
▁Festival	-5242
▁computer	-5243
▁negative	-5244
▁collected	-5245
▁executive	-5246
▁contributed	-5247
▁Entertainment	-5248
30	-5249
add	-5250
eck	-5251
sey	-5252
▁Ap	-5253
▁Mu	-5254
kins	-5255
unte	-5256
urop	-5257
▁Ell	-5258
▁Fre	-5259
▁Kar	-5260
▁Les	-5261
▁Mem	-5262
▁NBA	-5263
▁Wat	-5264
▁hor	-5265
iable	-5266
lines	-5267
▁1918	-5268
▁Cole	-5269
▁More	-5270
▁Rail	-5271
angers	-5272
▁Coast	-5273
▁Crazy	-5274
▁cited	-5275
▁craft	-5276
▁opera	-5277
▁overl	-5278
▁Athlet	-5279
▁Friend	-5280
▁Oxford	-5281
▁beyond	-5282
▁shaped	-5283
▁sports	-5284
▁animals	-5285
ieutenant	-5286
▁Addition	-5287
▁entirely	-5288
▁improved	-5289
▁effective	-5290
▁fictional	-5291
▁Revolution	-5292
▁subsequent	-5293
oen	-5294
rog	-5295
▁61	-5296
▁97	-5297
ayer	-5298
rine	-5299
▁Obs	-5300
▁mig	-5301
▁1968	-5302
▁boat	-5303
▁gain	-5304
▁myth	-5305
ancing	-5306
perial	-5307
▁Mario	-5308
▁Short	-5309
▁gives	-5310
▁train	-5311
agement	-5312
▁Boston	-5313
▁Gordon	-5314
▁visual	-5315
▁encoura	-5316
▁finding	-5317
▁medical	-5318
▁notable	-5319
According	-5320
▁recently	-5321
▁extensive	-5322
▁gradually	-5323
▁kilometres	-5324
ua	-5325
isy	-5326
ánh	-5327
▁55	-5328
aret	-5329
atus	-5330
chen	-5331
ules	-5332
ycle	-5333
▁800	-5334
▁Cle	-5335
▁Cub	-5336
▁Mod	-5337
▁Sus	-5338
▁egg	-5339
rence	-5340
▁1975	-5341
▁Chel	-5342
▁Head	-5343
▁Kang	-5344
▁Prov	-5345
▁bass	-5346
▁glob	-5347
▁mush	-5348
▁sail	-5349
iences	-5350
lywood	-5351
▁Stone	-5352
▁chair	-5353
▁dates	-5354
▁floor	-5355
▁occas	-5356
▁Martin	-5357
▁System	-5358
▁finals	-5359
▁severe	-5360
▁stages	-5361
▁survey	-5362
▁serving	-5363
▁antimony	-5364
▁expanded	-5365
▁programs	-5366
▁secondary	-5367
eda	-5368
erc	-5369
lee	-5370
opp	-5371
outs	-5372
yson	-5373
▁Fox	-5374
▁Rod	-5375
▁bow	-5376
▁bul	-5377
▁unf	-5378
ansas	-5379
usted	-5380
▁1969	-5381
▁Bart	-5382
▁Jain	-5383
▁Juan	-5384
▁Turk	-5385
▁chur	-5386
▁join	-5387
illing	-5388
▁Evita	-5389
▁arran	-5390
▁comes	-5391
▁finds	-5392
▁green	-5393
▁items	-5394
iations	-5395
▁Bridge	-5396
▁exclus	-5397
ographic	-5398
▁Magazine	-5399
▁occupied	-5400
▁centuries	-5401
▁composition	-5402
▁UN	-5403
erts	-5404
itan	-5405
ompl	-5406
opes	-5407
uate	-5408
▁Alf	-5409
▁Bru	-5410
ecess	-5411
ublin	-5412
▁1965	-5413
▁1974	-5414
▁Barb	-5415
▁Each	-5416
▁Greg	-5417
▁calc	-5418
▁sole	-5419
▁Lewis	-5420
▁daily	-5421
▁faith	-5422
▁naval	-5423
▁negot	-5424
▁Barrow	-5425
▁Origin	-5426
▁deaths	-5427
▁losses	-5428
▁slowly	-5429
izations	-5430
▁decades	-5431
▁treatment	-5432
▁experienced	-5433
▁commissioned	-5434
▁independence	-5435
▁successfully	-5436
He	-5437
amy	-5438
win	-5439
▁81	-5440
▁94	-5441
▁CD	-5442
▁164	-5443
▁aer	-5444
▁eth	-5445
▁Band	-5446
▁Rome	-5447
▁cool	-5448
▁didn	-5449
▁flag	-5450
▁synt	-5451
▁trip	-5452
▁Jamal	-5453
▁Songs	-5454
▁benef	-5455
▁Avenue	-5456
▁Torres	-5457
▁Turner	-5458
▁policy	-5459
▁captain	-5460
▁engaged	-5461
▁sentence	-5462
▁personnel	-5463
▁purchased	-5464
▁Thunderbirds	-5465
oe	-5466
ava	-5467
▁62	-5468
▁71	-5469
aire	-5470
anda	-5471
anny	-5472
lyss	-5473
▁160	-5474
▁Due	-5475
▁Gab	-5476
▁Jac	-5477
▁eas	-5478
▁1946	-5479
▁coal	-5480
▁Chart	-5481
▁Crown	-5482
▁beach	-5483
▁begun	-5484
▁fresh	-5485
▁labor	-5486
ategory	-5487
▁Nathan	-5488
▁People	-5489
▁Temple	-5490
▁chorus	-5491
▁elimin	-5492
▁propos	-5493
▁street	-5494
▁supply	-5495
▁Premier	-5496
▁Russian	-5497
▁Science	-5498
▁accompl	-5499
▁briefly	-5500
▁nothing	-5501
▁reasons	-5502
▁District	-5503
▁concrete	-5504
▁declined	-5505
▁protagon	-5506
▁Commander	-5507
▁southwest	-5508
▁worldwide	-5509
ela	-5510
▁GA	-5511
aton	-5512
guan	-5513
roph	-5514
town	-5515
▁Far	-5516
▁Han	-5517
▁Mov	-5518
▁gas	-5519
▁nor	-5520
ingly	-5521
pring	-5522
uting	-5523
▁Bull	-5524
▁Leon	-5525
▁summ	-5526
▁drawn	-5527
▁moves	-5528
▁roads	-5529
▁theat	-5530
iration	-5531
utation	-5532
▁escape	-5533
▁normal	-5534
▁leaders	-5535
▁incident	-5536
▁platform	-5537
▁importance	-5538
BS	-5539
▁#	-5540
For	-5541
osa	-5542
rug	-5543
set	-5544
▁73	-5545
Leod	-5546
amin	-5547
born	-5548
elli	-5549
onic	-5550
rupt	-5551
▁Rol	-5552
▁Sha	-5553
▁flu	-5554
▁pet	-5555
▁rac	-5556
quake	-5557
▁1919	-5558
▁1936	-5559
▁1952	-5560
▁1966	-5561
▁Area	-5562
▁Pers	-5563
▁firm	-5564
▁isol	-5565
▁plum	-5566
▁tall	-5567
▁tend	-5568
▁unsu	-5569
ooking	-5570
▁dance	-5571
▁delay	-5572
▁guard	-5573
▁hired	-5574
▁spons	-5575
respond	-5576
▁Daniel	-5577
▁Dublin	-5578
▁decade	-5579
▁senior	-5580
▁MacLeod	-5581
▁Project	-5582
▁arrival	-5583
▁billion	-5584
▁chapter	-5585
▁enjoyed	-5586
▁longest	-5587
▁witness	-5588
▁Governor	-5589
▁paintings	-5590
▁responded	-5591
▁foundation	-5592
▁accompanied	-5593
▁possibility	-5594
▁participated	-5595
bo	-5596
ía	-5597
▁72	-5598
rons	-5599
▁110	-5600
▁177	-5601
▁Mot	-5602
hetic	-5603
ichol	-5604
isers	-5605
▁Baby	-5606
▁Down	-5607
▁Isab	-5608
▁jack	-5609
▁ring	-5610
▁vert	-5611
lysses	-5612
▁Admir	-5613
▁Board	-5614
▁Dream	-5615
▁Khánh	-5616
▁heard	-5617
▁squad	-5618
▁stret	-5619
▁Chains	-5620
▁dollar	-5621
▁oldest	-5622
▁paralle	-5623
▁roughly	-5624
▁setting	-5625
ifications	-5626
▁agreement	-5627
▁developing	-5628
OC	-5629
▁i	-5630
pty	-5631
▁77	-5632
imet	-5633
rant	-5634
▁Bor	-5635
▁Jes	-5636
▁dog	-5637
▁emp	-5638
▁pal	-5639
chest	-5640
essed	-5641
▁1973	-5642
▁Step	-5643
▁Wall	-5644
▁remn	-5645
▁Dougl	-5646
▁calls	-5647
▁decre	-5648
espread	-5649
▁Summer	-5650
▁adding	-5651
▁choice	-5652
▁lasted	-5653
▁poetry	-5654
▁symbol	-5655
▁Ulysses	-5656
▁transit	-5657
▁accident	-5658
▁athletes	-5659
▁consists	-5660
▁violence	-5661
▁dominated	-5662
▁existence	-5663
▁regarding	-5664
▁technology	-5665
▁combination	-5666
▁populations	-5667
It	-5668
war	-5669
▁59	-5670
▁95	-5671
aver	-5672
come	-5673
usal	-5674
▁Jud	-5675
▁Ode	-5676
▁Ray	-5677
▁ign	-5678
itors	-5679
▁Bern	-5680
▁door	-5681
▁note	-5682
▁seat	-5683
▁trav	-5684
▁Brian	-5685
▁Georg	-5686
▁Phill	-5687
▁Radio	-5688
▁acres	-5689
▁altar	-5690
▁clubs	-5691
▁comic	-5692
▁towns	-5693
ressive	-5694
ructure	-5695
▁assass	-5696
▁fellow	-5697
▁reserv	-5698
▁submar	-5699
▁undert	-5700
▁Theatre	-5701
▁applied	-5702
▁closely	-5703
▁college	-5704
▁contrib	-5705
▁filming	-5706
▁habitat	-5707
▁existing	-5708
▁weakened	-5709
▁committee	-5710
▁unsuccess	-5711
▁performing	-5712
▁association	-5713
▁competitions	-5714
je	-5715
la	-5716
agn	-5717
isf	-5718
rin	-5719
var	-5720
▁85	-5721
▁98	-5722
▁ps	-5723
agle	-5724
agre	-5725
▁Rel	-5726
While	-5727
iling	-5728
▁1914	-5729
▁Bond	-5730
▁Braz	-5731
▁roof	-5732
▁trou	-5733
▁Maria	-5734
▁pilot	-5735
▁tells	-5736
▁truth	-5737
▁appeal	-5738
▁serves	-5739
▁Instead	-5740
▁Turkish	-5741
▁capable	-5742
▁correct	-5743
▁derived	-5744
▁descend	-5745
▁details	-5746
▁fashion	-5747
▁greatly	-5748
▁learned	-5749
▁neither	-5750
▁perhaps	-5751
▁purpose	-5752
▁reconst	-5753
▁Mountain	-5754
▁ceremony	-5755
▁distingu	-5756
▁painting	-5757
▁provides	-5758
▁substant	-5759
▁reinforce	-5760
▁battalions	-5761
▁correspond	-5762
▁Development	-5763
▁opportunity	-5764
▁occasionally	-5765
▁administration	-5766
▁archaeological	-5767
OT	-5768
ls	-5769
ona	-5770
▁66	-5771
▁od	-5772
otes	-5773
rait	-5774
▁Ing	-5775
▁Men	-5776
▁hyp	-5777
▁som	-5778
iston	-5779
▁1967	-5780
▁Also	-5781
▁Conn	-5782
▁Five	-5783
▁Stew	-5784
▁neck	-5785
▁ones	-5786
▁skin	-5787
▁sort	-5788
ibbean	-5789
▁Broad	-5790
▁Brook	-5791
▁thing	-5792
ountain	-5793
▁Albert	-5794
▁Bishop	-5795
▁basket	-5796
▁bought	-5797
▁editor	-5798
▁expans	-5799
▁filled	-5800
▁headed	-5801
entially	-5802
▁Anthony	-5803
▁Douglas	-5804
▁innings	-5805
▁invited	-5806
▁Francisc	-5807
▁Tennyson	-5808
▁churches	-5809
▁speaking	-5810
▁supposed	-5811
▁vehicles	-5812
▁Anonymous	-5813
▁Caribbean	-5814
▁encounter	-5815
▁household	-5816
▁receiving	-5817
▁storyline	-5818
▁technique	-5819
▁dissipated	-5820
▁protection	-5821
▁sufficient	-5822
GN	-5823
RE	-5824
VN	-5825
uri	-5826
▁Oh	-5827
abil	-5828
iece	-5829
oral	-5830
pton	-5831
▁ERA	-5832
▁Int	-5833
▁aim	-5834
▁cit	-5835
▁cra	-5836
▁hat	-5837
▁seg	-5838
idden	-5839
ropri	-5840
▁1945	-5841
▁Asia	-5842
▁Kenn	-5843
▁Marc	-5844
▁acid	-5845
▁crop	-5846
▁drew	-5847
▁evac	-5848
▁goes	-5849
▁Among	-5850
▁drama	-5851
▁astron	-5852
▁motion	-5853
▁viewed	-5854
▁islands	-5855
▁massive	-5856
▁receive	-5857
▁stopped	-5858
▁typical	-5859
▁anything	-5860
▁survived	-5861
▁southeast	-5862
▁classified	-5863
▁widespread	-5864
lik	-5865
ola	-5866
tty	-5867
▁Ré	-5868
▁Sk	-5869
apes	-5870
iege	-5871
ruli	-5872
▁175	-5873
▁176	-5874
▁250	-5875
▁Aer	-5876
▁Age	-5877
▁Low	-5878
▁Mel	-5879
▁Rox	-5880
▁Vol	-5881
▁cho	-5882
▁opt	-5883
▁rob	-5884
▁rot	-5885
▁why	-5886
acity	-5887
anned	-5888
erick	-5889
ilton	-5890
▁1971	-5891
▁Hard	-5892
▁Life	-5893
▁fuel	-5894
▁load	-5895
▁soft	-5896
▁subt	-5897
glades	-5898
ibrary	-5899
ighter	-5900
iously	-5901
▁Qedar	-5902
▁Today	-5903
▁initi	-5904
▁Golden	-5905
▁Hibari	-5906
▁safety	-5907
▁shared	-5908
▁trying	-5909
▁Chelsea	-5910
▁authors	-5911
▁digital	-5912
▁flights	-5913
▁missing	-5914
▁acquired	-5915
▁district	-5916
▁repeated	-5917
▁settlers	-5918
▁converted	-5919
▁Production	-5920
▁Constantine	-5921
iful	-5922
indu	-5923
reme	-5924
rier	-5925
▁AML	-5926
▁Ali	-5927
▁Hon	-5928
▁Tim	-5929
▁cab	-5930
▁dub	-5931
▁ice	-5932
▁lin	-5933
▁1913	-5934
▁1916	-5935
▁1956	-5936
▁1976	-5937
▁1982	-5938
▁Marl	-5939
▁Oslo	-5940
▁rebu	-5941
▁rich	-5942
ilding	-5943
ivered	-5944
▁Iguan	-5945
▁Jones	-5946
▁Princ	-5947
▁Sound	-5948
▁Track	-5949
▁exact	-5950
▁glass	-5951
▁micro	-5952
inosaur	-5953
issance	-5954
stances	-5955
▁Romani	-5956
▁finish	-5957
▁legend	-5958
▁routes	-5959
▁Fantasy	-5960
▁Stadium	-5961
▁channel	-5962
▁focused	-5963
▁funding	-5964
▁holding	-5965
▁opinion	-5966
▁spacing	-5967
▁watched	-5968
▁wedding	-5969
▁Cardinal	-5970
▁arranged	-5971
▁baseball	-5972
▁depicted	-5973
▁planning	-5974
▁locations	-5975
▁permanent	-5976
▁succeeded	-5977
▁atmosphere	-5978
▁experiment	-5979
▁instrument	-5980
ng	-5981
cer	-5982
oba	-5983
▁Bi	-5984
▁Ye	-5985
anth	-5986
mann	-5987
▁Fel	-5988
▁Gra	-5989
▁Jay	-5990
▁Liu	-5991
▁Row	-5992
▁mut	-5993
▁rif	-5994
apers	-5995
idges	-5996
▁1943	-5997
▁Arts	-5998
▁Gang	-5999
▁Gram	-6000
▁Holy	-6001
▁Wind	-6002
▁bowl	-6003
▁fear	-6004
▁knew	-6005
▁mort	-6006
▁pack	-6007
▁rose	-6008
▁wick	-6009
▁Boise	-6010
▁Haiti	-6011
▁table	-6012
▁urban	-6013
uropium	-6014
▁Allied	-6015
▁Brazil	-6016
▁Family	-6017
▁assemb	-6018
▁chance	-6019
▁overse	-6020
▁charter	-6021
▁creator	-6022
▁decline	-6023
▁defined	-6024
▁penalty	-6025
▁protect	-6026
▁reality	-6027
▁credited	-6028
▁resident	-6029
▁earthquake	-6030
▁revolution	-6031
LI	-6032
ét	-6033
eor	-6034
evo	-6035
vis	-6036
▁87	-6037
burg	-6038
pass	-6039
▁Bul	-6040
▁MTV	-6041
▁Mah	-6042
▁Moz	-6043
▁rub	-6044
▁sun	-6045
▁Fire	-6046
▁Stev	-6047
▁laws	-6048
▁tied	-6049
▁ways	-6050
▁wins	-6051
▁Gully	-6052
▁Maeda	-6053
▁Venus	-6054
▁heads	-6055
▁moder	-6056
▁pregn	-6057
uration	-6058
▁dating	-6059
▁explos	-6060
▁airport	-6061
▁renamed	-6062
formation	-6063
▁Georgian	-6064
▁Morrison	-6065
▁download	-6066
▁supplies	-6067
▁Meanwhile	-6068
▁Secretary	-6069
▁delivered	-6070
▁providing	-6071
▁separated	-6072
▁technical	-6073
▁thousands	-6074
▁Everglades	-6075
SB	-6076
gé	-6077
hi	-6078
min	-6079
ube	-6080
vey	-6081
ador	-6082
host	-6083
okes	-6084
▁Abb	-6085
▁Kat	-6086
▁Kil	-6087
▁Run	-6088
▁UTC	-6089
▁dry	-6090
▁enl	-6091
▁gal	-6092
▁san	-6093
attle	-6094
▁What	-6095
▁eyes	-6096
▁fair	-6097
essing	-6098
ipping	-6099
issipp	-6100
▁Hindu	-6101
▁rural	-6102
ivalent	-6103
▁Office	-6104
▁colour	-6105
▁courts	-6106
▁powers	-6107
▁regime	-6108
▁secure	-6109
▁select	-6110
▁surviv	-6111
▁Chronic	-6112
▁Rangers	-6113
▁emperor	-6114
▁journey	-6115
▁turning	-6116
▁indicate	-6117
▁teaching	-6118
▁Committee	-6119
▁Hollywood	-6120
▁certified	-6121
▁commanded	-6122
▁remainder	-6123
▁Lieutenant	-6124
▁Mississipp	-6125
▁assistance	-6126
▁consisting	-6127
▁opposition	-6128
▁Australians	-6129
Sh	-6130
▁Pu	-6131
From	-6132
aked	-6133
ardo	-6134
rell	-6135
▁Det	-6136
▁lit	-6137
▁lov	-6138
▁pup	-6139
▁sud	-6140
erted	-6141
jillo	-6142
opher	-6143
ribed	-6144
▁1953	-6145
▁1963	-6146
▁1978	-6147
▁Dota	-6148
▁card	-6149
▁drug	-6150
▁harm	-6151
▁impr	-6152
estone	-6153
▁aware	-6154
▁camps	-6155
▁hydro	-6156
▁noisy	-6157
▁quite	-6158
▁turns	-6159
▁Archae	-6160
▁Marine	-6161
▁Native	-6162
▁Sunday	-6163
▁occurs	-6164
▁valley	-6165
▁Friends	-6166
▁Montana	-6167
▁address	-6168
▁disturb	-6169
▁economy	-6170
▁Croatian	-6171
▁attached	-6172
▁highlight	-6173
▁surrender	-6174
▁references	-6175
▁Additionally	-6176
▁establishment	-6177
oh	-6178
dal	-6179
uma	-6180
nest	-6181
ture	-6182
▁112	-6183
▁Lev	-6184
▁Tel	-6185
▁fan	-6186
▁vic	-6187
agues	-6188
ennon	-6189
icted	-6190
ients	-6191
othes	-6192
▁Snow	-6193
▁cong	-6194
▁puzz	-6195
ewhere	-6196
itsune	-6197
▁immig	-6198
▁leads	-6199
▁store	-6200
▁views	-6201
ception	-6202
entions	-6203
▁Arthur	-6204
▁Master	-6205
▁Walter	-6206
▁branch	-6207
▁circum	-6208
▁denied	-6209
▁leaves	-6210
▁resist	-6211
▁Hornung	-6212
▁adapted	-6213
▁methods	-6214
▁monarch	-6215
▁replace	-6216
▁studied	-6217
▁Engineer	-6218
▁interior	-6219
▁missions	-6220
▁shooting	-6221
▁Alexander	-6222
▁finishing	-6223
▁portrayed	-6224
▁producing	-6225
▁successor	-6226
▁reputation	-6227
▁Mississippi	-6228
▁distribution	-6229
Ar	-6230
ić	-6231
ni	-6232
va	-6233
aka	-6234
bur	-6235
▁Wy	-6236
real	-6237
rien	-6238
▁Hug	-6239
▁Mul	-6240
▁Top	-6241
▁lic	-6242
▁obt	-6243
▁upd	-6244
break	-6245
onder	-6246
senal	-6247
▁1915	-6248
▁Hell	-6249
▁baby	-6250
▁lane	-6251
▁prey	-6252
▁About	-6253
▁Homer	-6254
▁Perry	-6255
▁Phoen	-6256
▁Simon	-6257
▁crime	-6258
▁entry	-6259
▁motor	-6260
▁worst	-6261
▁worth	-6262
rations	-6263
▁Samuel	-6264
▁franch	-6265
▁window	-6266
▁Similar	-6267
▁Stevens	-6268
▁getting	-6269
▁offense	-6270
▁Columbia	-6271
▁Director	-6272
▁Maryland	-6273
▁entering	-6274
▁gameplay	-6275
▁maintain	-6276
▁politics	-6277
▁dismissed	-6278
▁protected	-6279
▁intelligence	-6280
▁characteristics	-6281
kh	-6282
ns	-6283
▁−	-6284
aug	-6285
▁ML	-6286
▁ru	-6287
elve	-6288
orer	-6289
▁Cop	-6290
▁Exp	-6291
▁Kel	-6292
▁NBC	-6293
▁Sav	-6294
▁cry	-6295
▁die	-6296
▁von	-6297
acent	-6298
amber	-6299
ender	-6300
inals	-6301
▁shel	-6302
▁tell	-6303
▁tomb	-6304
ctions	-6305
orters	-6306
▁Const	-6307
▁Press	-6308
▁Ridge	-6309
▁basin	-6310
▁crown	-6311
▁exerc	-6312
▁holds	-6313
▁joint	-6314
▁knots	-6315
▁pound	-6316
▁Nether	-6317
▁Simone	-6318
▁charts	-6319
▁noting	-6320
▁novels	-6321
▁resour	-6322
▁retire	-6323
▁stones	-6324
▁charges	-6325
▁classes	-6326
▁dollars	-6327
▁Trujillo	-6328
▁capacity	-6329
▁electric	-6330
▁historic	-6331
▁monument	-6332
▁mushroom	-6333
▁discussed	-6334
▁philosoph	-6335
▁attributed	-6336
▁interested	-6337
▁introduction	-6338
19	-6339
aws	-6340
gra	-6341
▁69	-6342
▁74	-6343
▁79	-6344
▁Di	-6345
▁Sa	-6346
osis	-6347
rane	-6348
wise	-6349
▁DNA	-6350
▁Dom	-6351
▁Edu	-6352
▁Gil	-6353
▁Mid	-6354
▁fer	-6355
▁sym	-6356
▁van	-6357
ajevo	-6358
eenth	-6359
itage	-6360
itled	-6361
osure	-6362
▁1917	-6363
▁1948	-6364
▁Eliz	-6365
▁Walk	-6366
▁pros	-6367
▁vary	-6368
▁Anton	-6369
▁Danny	-6370
▁agent	-6371
▁cinem	-6372
▁pitch	-6373
▁rhyth	-6374
▁ruled	-6375
▁rules	-6376
▁solid	-6377
ocratic	-6378
▁Before	-6379
▁Jersey	-6380
▁Weekly	-6381
▁chapel	-6382
▁fields	-6383
▁offers	-6384
▁sector	-6385
▁tribes	-6386
▁vision	-6387
angerous	-6388
▁coastal	-6389
▁contest	-6390
▁younger	-6391
▁Industry	-6392
▁Sarajevo	-6393
▁accounts	-6394
▁colonial	-6395
▁medieval	-6396
▁appearing	-6397
▁predecess	-6398
▁publisher	-6399
▁statement	-6400
▁describing	-6401
▁generation	-6402
▁88	-6403
bles	-6404
ocal	-6405
rets	-6406
▁Cam	-6407
▁IGN	-6408
▁Inc	-6409
▁unn	-6410
ateur	-6411
iders	-6412
ivals	-6413
water	-6414
▁1890	-6415
▁1951	-6416
▁Fish	-6417
▁Patt	-6418
▁Wars	-6419
▁Yank	-6420
▁arts	-6421
▁bond	-6422
▁hope	-6423
▁soil	-6424
▁zone	-6425
engers	-6426
intend	-6427
offman	-6428
▁Campb	-6429
▁apart	-6430
▁basic	-6431
▁inner	-6432
▁kings	-6433
▁ninth	-6434
▁releg	-6435
▁Howard	-6436
▁Strand	-6437
▁caught	-6438
▁desire	-6439
▁manner	-6440
▁plants	-6441
▁rarely	-6442
▁Charlie	-6443
▁article	-6444
▁forests	-6445
▁someone	-6446
▁synthes	-6447
▁Bradford	-6448
▁Victoria	-6449
▁instruct	-6450
▁Iguanodon	-6451
▁discovery	-6452
▁emotional	-6453
▁exception	-6454
▁difficulty	-6455
▁everything	-6456
▁restaurant	-6457
▁recognition	-6458
▁considerable	-6459
AC	-6460
ānt	-6461
▁91	-6462
▁Ts	-6463
▁ha	-6464
▁ur	-6465
rior	-6466
rows	-6467
▁Rio	-6468
▁nob	-6469
abeth	-6470
ables	-6471
allow	-6472
ician	-6473
union	-6474
using	-6475
▁1954	-6476
▁1979	-6477
▁Lisa	-6478
▁Team	-6479
▁cold	-6480
▁gall	-6481
▁hill	-6482
▁mine	-6483
aments	-6484
graded	-6485
igades	-6486
ultane	-6487
▁Aston	-6488
▁Daily	-6489
▁Marsh	-6490
▁hotel	-6491
▁munic	-6492
▁shore	-6493
▁landed	-6494
▁settle	-6495
▁sudden	-6496
▁taught	-6497
▁thirty	-6498
▁wealth	-6499
▁wooden	-6500
▁evening	-6501
▁volunte	-6502
▁worship	-6503
▁Yankovic	-6504
▁opponents	-6505
▁Activision	-6506
▁Television	-6507
▁nomination	-6508
▁involvement	-6509
▁replacement	-6510
▁specifically	-6511
ext	-6512
lan	-6513
▁AR	-6514
▁ju	-6515
aska	-6516
avia	-6517
iary	-6518
ifna	-6519
leep	-6520
yles	-6521
▁Ron	-6522
▁Sor	-6523
▁Yan	-6524
▁bal	-6525
▁tal	-6526
▁tie	-6527
Brien	-6528
earch	-6529
eless	-6530
istol	-6531
orous	-6532
psons	-6533
reets	-6534
ropol	-6535
verse	-6536
▁1937	-6537
▁Fame	-6538
▁Trib	-6539
▁fish	-6540
▁jazz	-6541
▁leuk	-6542
atures	-6543
ceived	-6544
ingale	-6545
inking	-6546
ranean	-6547
usalem	-6548
▁Lords	-6549
▁Roxas	-6550
▁Santa	-6551
▁accur	-6552
▁poems	-6553
▁split	-6554
▁veget	-6555
▁Castle	-6556
▁Mozamb	-6557
▁Muslim	-6558
▁Somali	-6559
▁carbon	-6560
▁divine	-6561
▁fungus	-6562
▁picked	-6563
▁stream	-6564
▁Between	-6565
▁Singles	-6566
▁consequ	-6567
▁secured	-6568
▁Isabella	-6569
▁Simpsons	-6570
▁believes	-6571
▁Frederick	-6572
▁Jerusalem	-6573
▁Transport	-6574
▁industrial	-6575
▁communities	-6576
▁controversy	-6577
▁recommended	-6578
▁intersection	-6579
▁×	-6580
ban	-6581
ipe	-6582
rec	-6583
▁99	-6584
▁DA	-6585
▁Si	-6586
▁ic	-6587
rast	-6588
▁Cab	-6589
▁Joe	-6590
▁Jun	-6591
▁Lee	-6592
▁Rem	-6593
▁Rif	-6594
▁dim	-6595
▁fit	-6596
▁sed	-6597
▁1955	-6598
▁1961	-6599
▁Alan	-6600
▁Bono	-6601
▁Duke	-6602
▁Fair	-6603
▁Here	-6604
▁Plot	-6605
▁Pope	-6606
▁Upon	-6607
▁dock	-6608
▁hall	-6609
▁legs	-6610
▁soul	-6611
▁subs	-6612
▁vide	-6613
ussion	-6614
▁Organ	-6615
▁absor	-6616
▁faces	-6617
▁wrong	-6618
iveness	-6619
theless	-6620
▁Spring	-6621
▁depend	-6622
▁launch	-6623
▁missed	-6624
▁Calvert	-6625
▁Colonel	-6626
▁Rolling	-6627
▁convers	-6628
▁drawing	-6629
▁scholar	-6630
▁signing	-6631
▁strateg	-6632
▁whereas	-6633
▁Olympics	-6634
▁concerns	-6635
▁Argentina	-6636
▁extremely	-6637
▁principal	-6638
▁specimens	-6639
▁standards	-6640
▁leadership	-6641
▁Independent	-6642
▁organizations	-6643
iar	-6644
▁89	-6645
▁AD	-6646
iday	-6647
imal	-6648
▁Ash	-6649
▁Nap	-6650
▁Win	-6651
▁bes	-6652
▁ble	-6653
▁ske	-6654
ombat	-6655
onica	-6656
rates	-6657
scape	-6658
▁Chen	-6659
▁Sand	-6660
▁Stef	-6661
▁warm	-6662
wealth	-6663
▁Beach	-6664
▁Prime	-6665
▁demol	-6666
▁indig	-6667
▁psych	-6668
▁teeth	-6669
▁tries	-6670
▁youth	-6671
▁Carter	-6672
▁Forces	-6673
▁speech	-6674
▁treaty	-6675
iversary	-6676
▁Destiny	-6677
▁emerged	-6678
▁existed	-6679
▁parties	-6680
▁session	-6681
▁showing	-6682
▁Military	-6683
▁chemical	-6684
▁diameter	-6685
▁europium	-6686
▁minister	-6687
▁approached	-6688
▁conference	-6689
▁connection	-6690
▁surrounded	-6691
▁threatened	-6692
▁distributed	-6693
▁relationships	-6694
amm	-6695
aya	-6696
cho	-6697
oca	-6698
uda	-6699
utt	-6700
▁IV	-6701
▁ib	-6702
edom	-6703
▁Bos	-6704
▁Jos	-6705
▁Mic	-6706
▁Pan	-6707
▁fal	-6708
▁fle	-6709
▁lbw	-6710
aurus	-6711
inger	-6712
itals	-6713
organ	-6714
point	-6715
▁1900	-6716
▁1949	-6717
▁1958	-6718
▁1977	-6719
▁Bank	-6720
▁Hung	-6721
▁corp	-6722
▁mart	-6723
▁page	-6724
▁rect	-6725
▁stem	-6726
▁Chief	-6727
▁Elect	-6728
▁Order	-6729
▁Plunk	-6730
▁alien	-6731
▁citiz	-6732
▁decor	-6733
▁hoped	-6734
▁oppos	-6735
▁overw	-6736
▁shark	-6737
▁wants	-6738
▁bright	-6739
▁facing	-6740
▁firing	-6741
▁option	-6742
▁seeing	-6743
▁crossed	-6744
▁partial	-6745
▁pointed	-6746
▁railway	-6747
▁	-6748
e	-6749
t	-6750
a	-6751
n	-6752
i	-6753
o	-6754
r	-6755
s	-6756
h	-6757
l	-6758
d	-6759
c	-6760
u	-6761
m	-6762
f	-6763
g	-6764
p	-6765
w	-6766
y	-6767
b	-6768
,	-6769
.	-6770
v	-6771
k	-6772
@	-6773
1	-6774
T	-6775
0	-6776
A	-6777
S	-6778
=	-6779
"	-6780
C	-6781
M	-6782
2	-6783
I	-6784
B	-6785
9	-6786
'	-6787
-	-6788
H	-6789
P	-6790
x	-6791
R	-6792
D	-6793
F	-6794
N	-6795
W	-6796
L	-6797
)	-6798
(	-6799
G	-6800
3	-6801
5	-6802
8	-6803
J	-6804
E	-6805
O	-6806
4	-6807
6	-6808
7	-6809
z	-6810
j	-6811
K	-6812
q	-6813
U	-6814
V	-6815
;	-6816
–	-6817
:	-6818
Y	-6819
Z	-6820
/	-6821
—	-6822
é	-6823
Q	-6824
%	-6825
$	-6826
[	-6827
]	-6828
X	-6829
&	-6830
!	-6831
á	-6832
ā	-6833
í	-6834
’	-6835
£	-6836
°	-6837
ó	-6838
?	-6839
+	-6840
è	-6841
ō	-6842
ü	-6843
ö	-6844
ć	-6845
ä	-6846
š	-6847
#	-6848
ł	-6849
−	-6850
ø	-6851
ç	-6852
×	-6853
ś	-6854
ʻ	-6855
μ	-6856
ñ	-6857
ã	-6858
“	-6859
É	-6860
ˈ	-6861
”	-6862
₹	-6863
ū	-6864
ì	-6865
ư	-6866
â	-6867
ī	-6868
ń	-6869
ə	-6870
⁄	-6871
Æ	-6872
ơ	-6873
→	-6874
Í	-6875
à	-6876
Å	-6877
ă	-6878
ô	-6879
ا	-6880
ი	-6881
ú	-6882
Ō	-6883
α	-6884
č	-6885
☉	-6886
ë	-6887
ل	-6888
ž	-6889
ː	-6890
а	-6891
‘	-6892
の	-6893
*	-6894
~	-6895
ş	-6896
å	-6897
æ	-6898
ν	-6899
о	-6900
ს	-6901
ς	-6902
с	-6903
რ	-6904
ệ	-6905
ê	-6906
е	-6907
ე	-6908
τ	-6909
ス	-6910
ル	-6911
ο	-6912
р	-6913
ा	-6914
ḥ	-6915
ễ	-6916
い	-6917
Ā	-6918
Đ	-6919
ρ	-6920
т	-6921
ა	-6922
<	-6923
^	-6924
к	-6925
ה	-6926
ხ	-6927
ỳ	-6928
‐	-6929
′	-6930
♯	-6931
り	-6932
ー	-6933
Ø	-6934
î	-6935
đ	-6936
ė	-6937
ɪ	-6938
ό	-6939
и	-6940
ن	-6941
მ	-6942
უ	-6943
ア	-6944
Î	-6945
ï	-6946
β	-6947
κ	-6948
د	-6949
ვ	-6950
ლ	-6951
≤	-6952
ン	-6953
>	-6954
Ł	-6955
Š	-6956
в	-6957
ه	-6958
ร	-6959
ṃ	-6960
ッ	-6961
～	-6962
Á	-6963
û	-6964
ē	-6965
ɑ	-6966
С	-6967
ي	-6968
्	-6969
ო	-6970
ქ	-6971
†	-6972
€	-6973
き	-6974
イ	-6975
リ	-6976
大	-6977
±	-6978
Ö	-6979
ι	-6980
л	-6981
н	-6982
א	-6983
ب	-6984
م	-6985
ก	-6986
ั	-6987
დ	-6988
ტ	-6989
ṇ	-6990
ṯ	-6991
ị	-6992
〈	-6993
〉	-6994
し	-6995
ュ	-6996
・	-6997
火	-6998
ɒ	-6999
γ	-7000
ל	-7001
ر	-7002
ว	-7003
อ	-7004
ิ	-7005
გ	-7006
ნ	-7007
ṅ	-7008
か	-7009
た	-7010
つ	-7011
キ	-7012
ク	-7013
フ	-7014
州	-7015
狐	-7016
空	-7017
`	-7018
Ü	-7019
ò	-7020
Č	-7021
Ż	-7022
ʃ	-7023
ʿ	-7024
δ	-7025
λ	-7026
π	-7027
χ	-7028
й	-7029
ح	-7030
ش	-7031
ق	-7032
न	-7033
ย	-7034
ล	-7035
า	-7036
წ	-7037
ṣ	-7038
ṭ	-7039
ả	-7040
ấ	-7041
ầ	-7042
„	-7043
♭	-7044
ん	-7045
シ	-7046
テ	-7047
ト	-7048
ラ	-7049
ロ	-7050
動	-7051
戦	-7052
攻	-7053
日	-7054
機	-7055
殻	-7056
隊	-7057
ù	-7058
ţ	-7059
ɛ	-7060
ʊ	-7061
ˌ	-7062
̃	-7063
я	-7064
ו	-7065
י	-7066
פ	-7067
أ	-7068
ع	-7069
ܐ	-7070
ब	-7071
เ	-7072
ც	-7073
ჲ	-7074
჻	-7075
ᵻ	-7076
ớ	-7077
う	-7078
な	-7079
ば	-7080
ひ	-7081
め	-7082
も	-7083
デ	-7084
ナ	-7085
周	-7086
場	-7087
張	-7088
礮	-7089
¡	-7090
¥	-7091
·	-7092
Ú	-7093
ı	-7094
ɔ	-7095
ɡ	-7096
έ	-7097
ί	-7098
ε	-7099
θ	-7100
з	-7101
ъ	-7102
ח	-7103
س	-7104
ص	-7105
ण	-7106
द	-7107
र	-7108
व	-7109
ि	-7110
ू	-7111
ਅ	-7112
ਲ	-7113
ਹ	-7114
ง	-7115
ต	-7116
ม	-7117
თ	-7118
კ	-7119
ფ	-7120
ჯ	-7121
ჱ	-7122
ử	-7123
す	-7124
っ	-7125
と	-7126
ァ	-7127
ィ	-7128
エ	-7129
ォ	-7130
バ	-7131
ヴ	-7132
侗	-7133
光	-7134
劉	-7135
同	-7136
宗	-7137
李	-7138
花	-7139
\	-7140
|	-7141
§	-7142
Þ	-7143
ß	-7144
ą	-7145
ğ	-7146
Ś	-7147
ů	-7148
ų	-7149
ź	-7150
ż	-7151
Ž	-7152
ș	-7153
ʼ	-7154
ά	-7155
ή	-7156
η	-7157
ξ	-7158
σ	-7159
υ	-7160
ω	-7161
В	-7162
д	-7163
п	-7164
ц	-7165
ы	-7166
ב	-7167
إ	-7168
ت	-7169
ف	-7170
و	-7171
ई	-7172
क	-7173
त	-7174
ल	-7175
ह	-7176
ณ	-7177
พ	-7178
ี	-7179
่	-7180
์	-7181
ზ	-7182
ძ	-7183
ჰ	-7184
ჳ	-7185
ჴ	-7186
ạ	-7187
ắ	-7188
ọ	-7189
ὑ	-7190
₤	-7191
あ	-7192
が	-7193
く	-7194
ぐ	-7195
ち	-7196
ふ	-7197
ま	-7198
れ	-7199
ブ	-7200
プ	-7201
レ	-7202
孟	-7203
安	-7204
岳	-7205
技	-7206
王	-7207
砲	-7208
蘄	-7209
雪	-7210
}	-7211
Ó	-7212
ð	-7213
Ĕ	-7214
œ	-7215
Ş	-7216
ũ	-7217
ǎ	-7218
ȯ	-7219
ɐ	-7220
ɫ	-7221
ɾ	-7222
ʁ	-7223
ʔ	-7224
́	-7225
Δ	-7226
Χ	-7227
ώ	-7228
А	-7229
К	-7230
П	-7231
Х	-7232
м	-7233
х	-7234
ш	-7235
ю	-7236
ָ	-7237
ֹ	-7238
ם	-7239
ן	-7240
ס	-7241
ף	-7242
ש	-7243
ة	-7244
ك	-7245
ܗ	-7246
ܠ	-7247
ܵ	-7248
अ	-7249
म	-7250
य	-7251
स	-7252
ল	-7253
ਾ	-7254
ੁ	-7255
ള	-7256
്	-7257
ช	-7258
ป	-7259
แ	-7260
้	-7261
პ	-7262
ყ	-7263
შ	-7264
ჭ	-7265
ჵ	-7266
ḏ	-7267
Ḥ	-7268
ḷ	-7269
ṛ	-7270
ậ	-7271
ộ	-7272
ứ	-7273
ἀ	-7274
ὁ	-7275
‡	-7276
₣	-7277
≡	-7278
〜	-7279
お	-7280
け	-7281
こ	-7282
ご	-7283
さ	-7284
だ	-7285
に	-7286
み	-7287
ゆ	-7288
ら	-7289
る	-7290
わ	-7291
を	-7292
ェ	-7293
オ	-7294
ゲ	-7295
コ	-7296
サ	-7297
ズ	-7298
タ	-7299
ダ	-7300
チ	-7301
ツ	-7302
ド	-7303
ニ	-7304
ネ	-7305
マ	-7306
ミ	-7307
世	-7308
中	-7309
主	-7310
九	-7311
今	-7312
再	-7313
出	-7314
名	-7315
命	-7316
夕	-7317
女	-7318
子	-7319
山	-7320
師	-7321
拉	-7322
揺	-7323
政	-7324
方	-7325
旭	-7326
星	-7327
春	-7328
景	-7329
村	-7330
澤	-7331
義	-7332
興	-7333
蘇	-7334
運	-7335
里	-7336
金	-7337
銃	-7338
陈	-7339
陳	-7340
霹	-7341
靂	-7342
대	-7343
_	-7344
	-7345
	-7346
¢	-7347
¿	-7348
Ä	-7349
Ç	-7350
Ñ	-7351
ý	-7352
þ	-7353
Ē	-7354
ĕ	-7355
ę	-7356
ħ	-7357
İ	-7358
Ľ	-7359
ř	-7360
ǔ	-7361
Ș	-7362
ț	-7363
ɜ	-7364
ɢ	-7365
ɳ	-7366
ɽ	-7367
ʋ	-7368
ʒ	-7369
ʕ	-7370
ʾ	-7371
̍	-7372
̥	-7373
̯	-7374
͍	-7375
Α	-7376
Κ	-7377
Ν	-7378
Π	-7379
Τ	-7380
Φ	-7381
Ω	-7382
ψ	-7383
ύ	-7384
Б	-7385
Г	-7386
Р	-7387
У	-7388
Я	-7389
г	-7390
ж	-7391
у	-7392
ь	-7393
є	-7394
ֵ	-7395
ֶ	-7396
ּ	-7397
ג	-7398
ז	-7399
מ	-7400
נ	-7401
צ	-7402
ר	-7403
ת	-7404
ء	-7405
ث	-7406
ج	-7407
خ	-7408
ذ	-7409
ܕ	-7410
ܝ	-7411
ܢ	-7412
ܬ	-7413
ܲ	-7414
ं	-7415
ग	-7416
प	-7417
ु	-7418
े	-7419
ै	-7420
আ	-7421
হ	-7422
া	-7423
্	-7424
ੱ	-7425
അ	-7426
ഹ	-7427
ാ	-7428
ค	-7429
ซ	-7430
ญ	-7431
ฐ	-7432
ด	-7433
น	-7434
บ	-7435
ภ	-7436
ศ	-7437
ษ	-7438
ส	-7439
ห	-7440
ฮ	-7441
ะ	-7442
ึ	-7443
ไ	-7444
็	-7445
๊	-7446
Ⴀ	-7447
Ⴂ	-7448
Ⴃ	-7449
Ⴈ	-7450
Ⴌ	-7451
Ⴕ	-7452
Ⴟ	-7453
ბ	-7454
ჟ	-7455
ღ	-7456
ჩ	-7457
ჶ	-7458
ჷ	-7459
ჸ	-7460
ჹ	-7461
ჺ	-7462
ḍ	-7463
ỏ	-7464
ỗ	-7465
ữ	-7466
ỹ	-7467
ἰ	-7468
ὀ	-7469
―	-7470
•	-7471
☫	-7472
♀	-7473
⚳	-7474
ぎ	-7475
ず	-7476
ぜ	-7477
は	-7478
ほ	-7479
ゃ	-7480
ょ	-7481
ゥ	-7482
カ	-7483
ガ	-7484
グ	-7485
ジ	-7486
セ	-7487
ノ	-7488
ハ	-7489
パ	-7490
ヘ	-7491
ベ	-7492
ム	-7493
モ	-7494
ャ	-7495
ョ	-7496
一	-7497
七	-7498
下	-7499
丙	-7500
乃	-7501
之	-7502
乙	-7503
二	-7504
云	-7505
人	-7506
付	-7507
作	-7508
依	-7509
信	-7510
傳	-7511
儚	-7512
充	-7513
全	-7514
兵	-7515
其	-7516
具	-7517
円	-7518
判	-7519
前	-7520
剛	-7521
劇	-7522
化	-7523
北	-7524
华	-7525
厂	-7526
去	-7527
古	-7528
可	-7529
台	-7530
史	-7531
君	-7532
吳	-7533
和	-7534
咲	-7535
善	-7536
四	-7537
國	-7538
園	-7539
圣	-7540
在	-7541
坂	-7542
堤	-7543
塘	-7544
天	-7545
夫	-7546
妙	-7547
姚	-7548
守	-7549
宋	-7550
完	-7551
宝	-7552
宫	-7553
寝	-7554
寺	-7555
小	-7556
少	-7557
尾	-7558
川	-7559
巳	-7560
市	-7561
平	-7562
广	-7563
庆	-7564
府	-7565
座	-7566
廬	-7567
建	-7568
式	-7569
彌	-7570
彩	-7571
彼	-7572
後	-7573
御	-7574
德	-7575
思	-7576
愛	-7577
憑	-7578
憶	-7579
應	-7580
懷	-7581
战	-7582
扈	-7583
拳	-7584
挑	-7585
放	-7586
散	-7587
斯	-7588
旦	-7589
昌	-7590
明	-7591
晋	-7592
曦	-7593
月	-7594
望	-7595
未	-7596
本	-7597
杜	-7598
束	-7599
来	-7600
林	-7601
桜	-7602
梶	-7603
棘	-7604
椎	-7605
楊	-7606
楚	-7607
榮	-7608
橘	-7609
正	-7610
殿	-7611
母	-7612
水	-7613
汉	-7614
沂	-7615
沙	-7616
河	-7617
泗	-7618
波	-7619
泣	-7620
洪	-7621
淹	-7622
清	-7623
湯	-7624
漢	-7625
澄	-7626
灯	-7627
灵	-7628
灼	-7629
焼	-7630
熱	-7631
物	-7632
狸	-7633
玄	-7634
玩	-7635
珂	-7636
珙	-7637
球	-7638
理	-7639
琦	-7640
琪	-7641
瓊	-7642
生	-7643
田	-7644
畢	-7645
番	-7646
瘡	-7647
白	-7648
皮	-7649
真	-7650
祈	-7651
神	-7652
祠	-7653
秋	-7654
立	-7655
精	-7656
約	-7657
絵	-7658
織	-7659
翠	-7660
者	-7661
耕	-7662
肖	-7663
胡	-7664
膀	-7665
臂	-7666
良	-7667
芳	-7668
芽	-7669
若	-7670
英	-7671
藕	-7672
藥	-7673
行	-7674
裁	-7675
規	-7676
覺	-7677
观	-7678
解	-7679
記	-7680
誓	-7681
誡	-7682
誰	-7683
謎	-7684
许	-7685
谭	-7686
豪	-7687
豫	-7688
費	-7689
贵	-7690
赤	-7691
趙	-7692
足	-7693
跡	-7694
転	-7695
辛	-7696
逆	-7697
遇	-7698
過	-7699
遠	-7700
選	-7701
邦	-7702
邱	-7703
部	-7704
郭	-7705
都	-7706
酈	-7707
野	-7708
鋼	-7709
錄	-7710
錡	-7711
鍵	-7712
鐵	-7713
钱	-7714
铁	-7715
關	-7716
防	-7717
阿	-7718
陽	-7719
階	-7720
集	-7721
雲	-7722
霖	-7723
韓	-7724
願	-7725
顯	-7726
颜	-7727
马	-7728
高	-7729
龍	-7730
독	-7731
라	-7732
립	-7733
병	-7734
보	-7735
부	-7736
알	-7737
연	-7738
제	-7739
